{"token2id": {"<pad>": 0, "<unk>": 1, "<bos>": 2, "<eos>": 3, "<start_of_turn>": 4, "<end_of_turn>": 5, "<reason>": 6, "</reason>": 7, "<plan>": 8, "</plan>": 9, "<hypothesis>": 10, "</hypothesis>": 11, "<simulate>": 12, "</simulate>": 13, "<memory>": 14, "</memory>": 15, "<tool>": 16, "</tool>": 17, "<verify>": 18, "</verify>": 19, "<contradiction>": 20, "</contradiction>": 21, "<gondolkodás>": 22, "</gondolkodás>": 23, "<válasz>": 24, "</válasz>": 25, "<reasoning>": 26, "</reasoning>": 27, "<answer>": 28, "</answer>": 29, "Terv:": 30, "Gondolkodás:": 31, "Bizonyíték:": 32, "Ellenőrzés:": 33, "Plan:": 34, "Reasoning:": 35, "Evidence:": 36, "Sanity_check:": 37, "user": 38, "model": 39, "<0x00>": 40, "<0x01>": 41, "<0x02>": 42, "<0x03>": 43, "<0x04>": 44, "<0x05>": 45, "<0x06>": 46, "<0x07>": 47, "<0x08>": 48, "<0x09>": 49, "<0x0A>": 50, "<0x0B>": 51, "<0x0C>": 52, "<0x0D>": 53, "<0x0E>": 54, "<0x0F>": 55, "<0x10>": 56, "<0x11>": 57, "<0x12>": 58, "<0x13>": 59, "<0x14>": 60, "<0x15>": 61, "<0x16>": 62, "<0x17>": 63, "<0x18>": 64, "<0x19>": 65, "<0x1A>": 66, "<0x1B>": 67, "<0x1C>": 68, "<0x1D>": 69, "<0x1E>": 70, "<0x1F>": 71, "<0x20>": 72, "<0x21>": 73, "<0x22>": 74, "<0x23>": 75, "<0x24>": 76, "<0x25>": 77, "<0x26>": 78, "<0x27>": 79, "<0x28>": 80, "<0x29>": 81, "<0x2A>": 82, "<0x2B>": 83, "<0x2C>": 84, "<0x2D>": 85, "<0x2E>": 86, "<0x2F>": 87, "<0x30>": 88, "<0x31>": 89, "<0x32>": 90, "<0x33>": 91, "<0x34>": 92, "<0x35>": 93, "<0x36>": 94, "<0x37>": 95, "<0x38>": 96, "<0x39>": 97, "<0x3A>": 98, "<0x3B>": 99, "<0x3C>": 100, "<0x3D>": 101, "<0x3E>": 102, "<0x3F>": 103, "<0x40>": 104, "<0x41>": 105, "<0x42>": 106, "<0x43>": 107, "<0x44>": 108, "<0x45>": 109, "<0x46>": 110, "<0x47>": 111, "<0x48>": 112, "<0x49>": 113, "<0x4A>": 114, "<0x4B>": 115, "<0x4C>": 116, "<0x4D>": 117, "<0x4E>": 118, "<0x4F>": 119, "<0x50>": 120, "<0x51>": 121, "<0x52>": 122, "<0x53>": 123, "<0x54>": 124, "<0x55>": 125, "<0x56>": 126, "<0x57>": 127, "<0x58>": 128, "<0x59>": 129, "<0x5A>": 130, "<0x5B>": 131, "<0x5C>": 132, "<0x5D>": 133, "<0x5E>": 134, "<0x5F>": 135, "<0x60>": 136, "<0x61>": 137, "<0x62>": 138, "<0x63>": 139, "<0x64>": 140, "<0x65>": 141, "<0x66>": 142, "<0x67>": 143, "<0x68>": 144, "<0x69>": 145, "<0x6A>": 146, "<0x6B>": 147, "<0x6C>": 148, "<0x6D>": 149, "<0x6E>": 150, "<0x6F>": 151, "<0x70>": 152, "<0x71>": 153, "<0x72>": 154, "<0x73>": 155, "<0x74>": 156, "<0x75>": 157, "<0x76>": 158, "<0x77>": 159, "<0x78>": 160, "<0x79>": 161, "<0x7A>": 162, "<0x7B>": 163, "<0x7C>": 164, "<0x7D>": 165, "<0x7E>": 166, "<0x7F>": 167, "<0x80>": 168, "<0x81>": 169, "<0x82>": 170, "<0x83>": 171, "<0x84>": 172, "<0x85>": 173, "<0x86>": 174, "<0x87>": 175, "<0x88>": 176, "<0x89>": 177, "<0x8A>": 178, "<0x8B>": 179, "<0x8C>": 180, "<0x8D>": 181, "<0x8E>": 182, "<0x8F>": 183, "<0x90>": 184, "<0x91>": 185, "<0x92>": 186, "<0x93>": 187, "<0x94>": 188, "<0x95>": 189, "<0x96>": 190, "<0x97>": 191, "<0x98>": 192, "<0x99>": 193, "<0x9A>": 194, "<0x9B>": 195, "<0x9C>": 196, "<0x9D>": 197, "<0x9E>": 198, "<0x9F>": 199, "<0xA0>": 200, "<0xA1>": 201, "<0xA2>": 202, "<0xA3>": 203, "<0xA4>": 204, "<0xA5>": 205, "<0xA6>": 206, "<0xA7>": 207, "<0xA8>": 208, "<0xA9>": 209, "<0xAA>": 210, "<0xAB>": 211, "<0xAC>": 212, "<0xAD>": 213, "<0xAE>": 214, "<0xAF>": 215, "<0xB0>": 216, "<0xB1>": 217, "<0xB2>": 218, "<0xB3>": 219, "<0xB4>": 220, "<0xB5>": 221, "<0xB6>": 222, "<0xB7>": 223, "<0xB8>": 224, "<0xB9>": 225, "<0xBA>": 226, "<0xBB>": 227, "<0xBC>": 228, "<0xBD>": 229, "<0xBE>": 230, "<0xBF>": 231, "<0xC0>": 232, "<0xC1>": 233, "<0xC2>": 234, "<0xC3>": 235, "<0xC4>": 236, "<0xC5>": 237, "<0xC6>": 238, "<0xC7>": 239, "<0xC8>": 240, "<0xC9>": 241, "<0xCA>": 242, "<0xCB>": 243, "<0xCC>": 244, "<0xCD>": 245, "<0xCE>": 246, "<0xCF>": 247, "<0xD0>": 248, "<0xD1>": 249, "<0xD2>": 250, "<0xD3>": 251, "<0xD4>": 252, "<0xD5>": 253, "<0xD6>": 254, "<0xD7>": 255, "<0xD8>": 256, "<0xD9>": 257, "<0xDA>": 258, "<0xDB>": 259, "<0xDC>": 260, "<0xDD>": 261, "<0xDE>": 262, "<0xDF>": 263, "<0xE0>": 264, "<0xE1>": 265, "<0xE2>": 266, "<0xE3>": 267, "<0xE4>": 268, "<0xE5>": 269, "<0xE6>": 270, "<0xE7>": 271, "<0xE8>": 272, "<0xE9>": 273, "<0xEA>": 274, "<0xEB>": 275, "<0xEC>": 276, "<0xED>": 277, "<0xEE>": 278, "<0xEF>": 279, "<0xF0>": 280, "<0xF1>": 281, "<0xF2>": 282, "<0xF3>": 283, "<0xF4>": 284, "<0xF5>": 285, "<0xF6>": 286, "<0xF7>": 287, "<0xF8>": 288, "<0xF9>": 289, "<0xFA>": 290, "<0xFB>": 291, "<0xFC>": 292, "<0xFD>": 293, "<0xFE>": 294, "<0xFF>": 295, " a</w>": 296, " the</w>": 297, " of</w>": 298, " and</w>": 299, " to</w>": 300, " az</w>": 301, " és</w>": 302, " is</w>": 303, " in</w>": 304, " A</w>": 305, " hogy</w>": 306, " that</w>": 307, " nem</w>": 308, " for</w>": 309, " are</w>": 310, " egy</w>": 311, " as</w>": 312, " The</w>": 313, " with</w>": 314, " be</w>": 315, " on</w>": 316, " -</w>": 317, " or</w>": 318, " by</w>": 319, " from</w>": 320, " was</w>": 321, " it</w>": 322, " Az</w>": 323, " –</w>": 324, " can</w>": 325, "es</w>": 326, " have</w>": 327, " vagy</w>": 328, " an</w>": 329, " at</w>": 330, "ing</w>": 331, "ed</w>": 332, " de</w>": 333, "e,</w>": 334, " this</w>": 335, " not</w>": 336, " their</w>": 337, "et</w>": 338, " you</w>": 339, "ek</w>": 340, " meg</w>": 341, "e.</w>": 342, "ok</w>": 343, " which</w>": 344, " B": 345, " S": 346, " they</w>": 347, "er</w>": 348, " csak</w>": 349, " már</w>": 350, "s,</w>": 351, " T": 352, "a,</w>": 353, " M": 354, "ás</w>": 355, "on</w>": 356, "ni</w>": 357, "en</w>": 358, " more</w>": 359, " ha</w>": 360, " were</w>": 361, " H": 362, "s.</w>": 363, " has</w>": 364, " will</w>": 365, "t,</w>": 366, " K": 367, "es,</w>": 368, " kell</w>": 369, " F": 370, " L": 371, " P": 372, " your</w>": 373, " még</w>": 374, " also</w>": 375, " b": 376, " C": 377, " mint</w>": 378, "at": 379, "és</w>": 380, " (": 381, " but</w>": 382, "er": 383, "t.</w>": 384, " most</w>": 385, " R": 386, " p": 387, " In</w>": 388, "os</w>": 389, "át</w>": 390, " D": 391, " m": 392, " ez</w>": 393, "al</w>": 394, "al": 395, " N": 396, " one</w>": 397, " van</w>": 398, " other</w>": 399, "at</w>": 400, " t": 401, "ers</w>": 402, "el": 403, " r": 404, "it": 405, "nak</w>": 406, " about</w>": 407, " l": 408, "ban</w>": 409, "ja</w>": 410, " we</w>": 411, " f": 412, " azt</w>": 413, " s": 414, " volt</w>": 415, " all</w>": 416, "in": 417, " This</w>": 418, " may</w>": 419, "nek</w>": 420, "es.</w>": 421, "et": 422, "re</w>": 423, "ar": 424, "or": 425, "ra</w>": 426, "ben</w>": 427, "ik</w>": 428, "ol": 429, "ot</w>": 430, "en": 431, " than</w>": 432, "on": 433, " his</w>": 434, " el</w>": 435, "a.</w>": 436, " h": 437, " into</w>": 438, "ation</w>": 439, " minden</w>": 440, "an</w>": 441, " G": 442, "ad": 443, "ét</w>": 444, " its</w>": 445, " V": 446, " been</w>": 447, " szex</w>": 448, " k": 449, " akkor</w>": 450, " when</w>": 451, " olyan</w>": 452, " these</w>": 453, "ott</w>": 454, "an": 455, " pedig</w>": 456, "es": 457, "ai</w>": 458, "et,</w>": 459, " így</w>": 460, " It</w>": 461, " c": 462, " who</w>": 463, " magyar</w>": 464, " had</w>": 465, " d": 466, "ed": 467, " lehet</w>": 468, " such</w>": 469, "ic": 470, " some</w>": 471, "ák</w>": 472, "ni,</w>": 473, " sz": 474, "The</w>": 475, "i,</w>": 476, " nagy</w>": 477, " ki</w>": 478, " sem</w>": 479, "ett</w>": 480, "ate</w>": 481, " mert</w>": 482, "us</w>": 483, " szerint</w>": 484, "ünk</w>": 485, "em</w>": 486, " used</w>": 487, "ul": 488, "am": 489, "ed.</w>": 490, "ek,</w>": 491, " would</w>": 492, "eket</w>": 493, " he</w>": 494, " ami</w>": 495, " több</w>": 496, "ás": 497, " v": 498, " is,</w>": 499, "ed,</w>": 500, " I</w>": 501, " J": 502, " el": 503, "sz": 504, " is.</w>": 505, "ik": 506, " use</w>": 507, "el</w>": 508, "Az</w>": 509, "or</w>": 510, " n": 511, "ak": 512, " W": 513, " if</w>": 514, " only</w>": 515, " many</w>": 516, "ing,</w>": 517, "unk</w>": 518, "ése</w>": 519, " porno</w>": 520, " g": 521, " how</w>": 522, "em": 523, " majd</w>": 524, "ia</w>": 525, "om": 526, " our</w>": 527, "ása</w>": 528, "ni.</w>": 529, " people</w>": 530, " there</w>": 531, "ában</w>": 532, "án</w>": 533, "as</w>": 534, "os": 535, " után</w>": 536, "ál": 537, " nagyon</w>": 538, "ak</w>": 539, " új</w>": 540, "od": 541, " so</w>": 542, " first</w>": 543, " two</w>": 544, " két</w>": 545, "il": 546, " első</w>": 547, " Ha</w>": 548, " up</w>": 549, "is": 550, "ag": 551, "ic</w>": 552, " them</w>": 553, " what</w>": 554, " E": 555, " fel": 556, " out</w>": 557, "ta</w>": 558, " sex</w>": 559, " between</w>": 560, "er,</w>": 561, "ent</w>": 562, " aki</w>": 563, " st": 564, "om</w>": 565, "in</w>": 566, " ezt</w>": 567, " amely</w>": 568, " Ez</w>": 569, " “": 570, " do</w>": 571, "ár": 572, "eg": 573, " meg": 574, "en,</w>": 575, " new</w>": 576, "ing.</w>": 577, "ók</w>": 578, "okat</w>": 579, " \"": 580, " A": 581, " through</w>": 582, "ési</w>": 583, " w": 584, " úgy</w>": 585, "it</w>": 586, "ok,</w>": 587, " time</w>": 588, "ap": 589, "ei</w>": 590, "y,</w>": 591, "ated</w>": 592, " like</w>": 593, "et.</w>": 594, "’s</w>": 595, " jó</w>": 596, " no</w>": 597, "ent": 598, " could</w>": 599, " any</w>": 600, "ási</w>": 601, " over</w>": 602, "ít": 603, "ek": 604, " egyik</w>": 605, "th": 606, "ok": 607, "ar</w>": 608, "át,</w>": 609, " should</w>": 610, "és": 611, "ának</w>": 612, "us": 613, "ut": 614, "'s</w>": 615, "va</w>": 616, "ást</w>": 617, "ot": 618, " s</w>": 619, "er.</w>": 620, "ly</w>": 621, "id": 622, " where</w>": 623, "ék</w>": 624, " illetve</w>": 625, "is</w>": 626, "ve</w>": 627, "ik,</w>": 628, "at,</w>": 629, " make</w>": 630, " fel</w>": 631, " valamint</w>": 632, "ez": 633, " Sz": 634, "am</w>": 635, " because</w>": 636, "ést</w>": 637, "ó,</w>": 638, "ur": 639, "ba</w>": 640, "on,</w>": 641, " very</w>": 642, "as": 643, "ének</w>": 644, " amikor</w>": 645, " hanem</w>": 646, "av": 647, " different</w>": 648, "ac": 649, " water</w>": 650, "al,</w>": 651, "og": 652, " élet": 653, " j": 654, " amit</w>": 655, " each</w>": 656, " ad": 657, " after</w>": 658, "e:</w>": 659, "y.</w>": 660, " köz": 661, "op": 662, " then</w>": 663, "en.</w>": 664, " O": 665, " más</w>": 666, "ára</w>": 667, "ében</w>": 668, " mi</w>": 669, " during</w>": 670, " help</w>": 671, " azonban</w>": 672, "ér": 673, " hely": 674, "ával</w>": 675, " sp": 676, " I": 677, " által</w>": 678, " között</w>": 679, " ahol</w>": 680, "ine</w>": 681, " 1</w>": 682, " un": 683, " They</w>": 684, " If</w>": 685, " sok</w>": 686, "ab": 687, " even</w>": 688, "ant</w>": 689, "be</w>": 690, "ch": 691, "able</w>": 692, "ár</w>": 693, "ter": 694, " Nem</w>": 695, " leg": 696, " akik</w>": 697, " való</w>": 698, " áll": 699, " al": 700, " those</w>": 701, "iz": 702, "ation.</w>": 703, " alatt</w>": 704, " 2</w>": 705, "én</w>": 706, " found</w>": 707, " sh": 708, "ro": 709, " 201": 710, "án": 711, " being</w>": 712, "juk</w>": 713, " tr": 714, "est</w>": 715, "ett": 716, "ják</w>": 717, "ation,</w>": 718, " lesz</w>": 719, " cs": 720, " 200": 721, "end": 722, " important</w>": 723, "ás,</w>": 724, "ec": 725, " be": 726, " 199": 727, " ingyen</w>": 728, "ét,</w>": 729, "um</w>": 730, "ik.</w>": 731, ").</w>": 732, " itt</w>": 733, " much</w>": 734, " ki": 735, "oz": 736, "ies</w>": 737, " online</w>": 738, "ir": 739, "ig": 740, " need</w>": 741, "ások</w>": 742, "ja,</w>": 743, " same</w>": 744, " made</w>": 745, " For</w>": 746, "ations</w>": 747, "ő,</w>": 748, " saját</w>": 749, "ség</w>": 750, "ts</w>": 751, "),</w>": 752, " vég": 753, " 5": 754, " years</w>": 755, "st": 756, " students</w>": 757, "ot,</w>": 758, "át.</w>": 759, " both</w>": 760, " well</w>": 761, " work</w>": 762, "est": 763, " pornó</w>": 764, " using</w>": 765, "ating</w>": 766, "on.</w>": 767, " often</w>": 768, "ők</w>": 769, " él": 770, "um": 771, " kap": 772, "nak,</w>": 773, "esen</w>": 774, " 4": 775, " St": 776, " ilyen</w>": 777, " just</w>": 778, "ical</w>": 779, "cs": 780, "ott,</w>": 781, " mindig</w>": 782, " way</w>": 783, " ne</w>": 784, " volt,</w>": 785, "im": 786, "az": 787, "al.</w>": 788, "ell": 789, " világ": 790, "ad</w>": 791, "át": 792, "ék": 793, "ing": 794, "and": 795, "an,</w>": 796, " fog": 797, " miatt</w>": 798, " Al": 799, " akár</w>": 800, " part</w>": 801, "re": 802, " nap": 803, " alap": 804, " ár": 805, " számára</w>": 806, "ük</w>": 807, " De</w>": 808, "age</w>": 809, " called</w>": 810, " mellett</w>": 811, " number</w>": 812, " szer": 813, " jól</w>": 814, "em,</w>": 815, "áz": 816, " while</w>": 817, " children</w>": 818, " 3</w>": 819, " meg,</w>": 820, " kis</w>": 821, " nincs</w>": 822, " teljes</w>": 823, " get</w>": 824, "ev": 825, "nek,</w>": 826, "ates</w>": 827, "ian</w>": 828, " These</w>": 829, "hat": 830, " év": 831, " ezért</w>": 832, "iv": 833, " során</w>": 834, "tr": 835, " around</w>": 836, " hiszen</w>": 837, "ers,</w>": 838, "tek</w>": 839, ".,</w>": 840, " tart": 841, " her</w>": 842, " annak</w>": 843, " jog": 844, " rész": 845, " ér": 846, " before</w>": 847, " filmek</w>": 848, "le</w>": 849, "ek.</w>": 850, "ette</w>": 851, "ekkel</w>": 852, "ban,</w>": 853, " high</w>": 854, "uk</w>": 855, " known</w>": 856, "ül": 857, "oc": 858, " 10</w>": 859, " New</w>": 860, " ch": 861, "ált</w>": 862, "ings</w>": 863, " tud": 864, " tan": 865, "ill": 866, " én</w>": 867, " nagy": 868, " Egy</w>": 869, "ból</w>": 870, " kép": 871, " video</w>": 872, "i.</w>": 873, " information</w>": 874, " see</w>": 875, " Z": 876, "el,</w>": 877, "ések</w>": 878, "ri": 879, " El": 880, "pl": 881, "ence</w>": 882, " As</w>": 883, "ay</w>": 884, " system</w>": 885, "ov": 886, "ol</w>": 887, " th": 888, "ét": 889, "ary</w>": 890, "egy": 891, "ét.</w>": 892, "jük</w>": 893, "at.</w>": 894, "re,</w>": 895, "un": 896, " egy": 897, "k,</w>": 898, " take</w>": 899, " Ch": 900, " ír": 901, " form": 902, " ő</w>": 903, "gy": 904, "ben,</w>": 905, " three</w>": 906, "ep": 907, "ely</w>": 908, " milyen</w>": 909, " videok</w>": 910, " a": 911, "ről</w>": 912, "hoz</w>": 913, " amelyek</w>": 914, "ess": 915, " 3": 916, " must</w>": 917, " lát": 918, "ul</w>": 919, " data</w>": 920, "ál</w>": 921, " There</w>": 922, " használ": 923, "eti</w>": 924, " under</w>": 925, "ót</w>": 926, "ak,</w>": 927, " including</w>": 928, " alapján</w>": 929, " fl": 930, " év</w>": 931, "él": 932, "te</w>": 933, "ion</w>": 934, "nak.</w>": 935, "ist": 936, " test": 937, "ség": 938, " legjobb</w>": 939, " elő": 940, "ói</w>": 941, " He</w>": 942, "ett,</w>": 943, "eket,</w>": 944, " meg.</w>": 945, "ám": 946, " egész</w>": 947, "if": 948, "th</w>": 949, " le</w>": 950, " mag": 951, " 6": 952, " &</w>": 953, "ors</w>": 954, " But</w>": 955, " bl": 956, " mond": 957, "os,</w>": 958, " bel": 959, " human</w>": 960, " e": 961, " does</w>": 962, " When</w>": 963, " szak": 964, "ként</w>": 965, "ics</w>": 966, " study</w>": 967, " éves</w>": 968, "elt</w>": 969, "ance</w>": 970, " mind</w>": 971, " pr": 972, " például</w>": 973, " small</w>": 974, " What</w>": 975, "ers.</w>": 976, "je</w>": 977, "ef": 978, "ob": 979, " van,</w>": 980, "ip": 981, " ingyenes</w>": 982, " 7": 983, " esetén</w>": 984, "ata</w>": 985, " re": 986, " 8": 987, "és,</w>": 988, "ult</w>": 989, " cél": 990, "ött</w>": 991, "ését</w>": 992, " előtt</w>": 993, " kér": 994, " within</w>": 995, " szem": 996, "ens</w>": 997, " z": 998, " hogyan</w>": 999, "ny": 1000, " „": 1001, "and</w>": 1002, " nélkül</w>": 1003, "ant": 1004, " —</w>": 1005, " néz": 1006, " Th": 1007, " large</w>": 1008, "okkal</w>": 1009, "szer": 1010, " pl": 1011, "ot.</w>": 1012, "ére</w>": 1013, "ért</w>": 1014, " American</w>": 1015, "k.</w>": 1016, "ment</w>": 1017, " 5</w>": 1018, " megfelelő</w>": 1019, " still</w>": 1020, "asz": 1021, " am": 1022, " We</w>": 1023, " own</w>": 1024, "eni</w>": 1025, " health</w>": 1026, "ról</w>": 1027, " ott</w>": 1028, " .</w>": 1029, " 9": 1030, "ig</w>": 1031, "or,</w>": 1032, " szám": 1033, " át": 1034, " good</w>": 1035, "ott": 1036, " arra</w>": 1037, " ember</w>": 1038, "ally</w>": 1039, "atok</w>": 1040, "esz": 1041, " research</w>": 1042, " However,</w>": 1043, " dr": 1044, "ity</w>": 1045, "tak</w>": 1046, "ális</w>": 1047, " in": 1048, " common</w>": 1049, " néhány</w>": 1050, " mely</w>": 1051, " hat": 1052, " cl": 1053, "ert": 1054, "ah": 1055, " át</w>": 1056, "ist</w>": 1057, " now</w>": 1058, "ható</w>": 1059, " o": 1060, "ani</w>": 1061, " gr": 1062, " for": 1063, "ra,</w>": 1064, "ód": 1065, " Magyar</w>": 1066, "ow": 1067, " might</w>": 1068, " food</w>": 1069, "ass": 1070, "ative</w>": 1071, "ós</w>": 1072, " an": 1073, " less</w>": 1074, "nek.</w>": 1075, "eb": 1076, " par": 1077, "ből</w>": 1078, "att": 1079, "int": 1080, " volna</w>": 1081, "el.</w>": 1082, " without</w>": 1083, "ban.</w>": 1084, " más": 1085, " early</w>": 1086, " know</w>": 1087, "a:</w>": 1088, " film</w>": 1089, " ind": 1090, " kezel": 1091, "all": 1092, " form</w>": 1093, " tini</w>": 1094, "olt</w>": 1095, " United</w>": 1096, " long</w>": 1097, " Sh": 1098, "ug": 1099, " jel": 1100, " azért</w>": 1101, " viszont</w>": 1102, "ikus</w>": 1103, "ex": 1104, " másik</w>": 1105, " És</w>": 1106, "ure</w>": 1107, "ive</w>": 1108, "hat</w>": 1109, "als</w>": 1110, " három</w>": 1111, "ang": 1112, " kezd": 1113, " társkereső</w>": 1114, " Cs": 1115, " készít": 1116, "In</w>": 1117, "e-": 1118, "af": 1119, "ati</w>": 1120, " body</w>": 1121, "eh": 1122, "om,</w>": 1123, "ben.</w>": 1124, " find</w>": 1125, "ib": 1126, "ia,</w>": 1127, " adott</w>": 1128, " nagyobb</w>": 1129, " sl": 1130, " energy</w>": 1131, "ünk,</w>": 1132, "ták</w>": 1133, " You</w>": 1134, "ével</w>": 1135, "én": 1136, "o,</w>": 1137, " er": 1138, " become</w>": 1139, "ását</w>": 1140, "ja.</w>": 1141, " us</w>": 1142, "áll": 1143, "osan</w>": 1144, " az,</w>": 1145, " blood</w>": 1146, "unk,</w>": 1147, "ens": 1148, " several</w>": 1149, "ság</w>": 1150, " fej": 1151, " cr": 1152, " few</w>": 1153, " hang": 1154, "ül</w>": 1155, " life</w>": 1156, "okat,</w>": 1157, " cause</w>": 1158, " munk": 1159, "re.</w>": 1160, " különböző</w>": 1161, "ets</w>": 1162, "hez</w>": 1163, "uk": 1164, "ents</w>": 1165, " every</w>": 1166, " esetben</w>": 1167, " ar": 1168, "se</w>": 1169, " did</w>": 1170, " 4</w>": 1171, "ect": 1172, " fontos</w>": 1173, " any": 1174, " mit</w>": 1175, "ebb</w>": 1176, ".)</w>": 1177, " min": 1178, " kör": 1179, "ow</w>": 1180, "id</w>": 1181, " se": 1182, "ite</w>": 1183, " str": 1184, " back</w>": 1185, " inkább</w>": 1186, " University</w>": 1187, " talál": 1188, " érték": 1189, " 10": 1190, " 198": 1191, " An": 1192, "eit</w>": 1193, " against</w>": 1194, "aj": 1195, " co": 1196, " ember": 1197, " power</w>": 1198, " oldal": 1199, "an.</w>": 1200, " hal": 1201, " br": 1202, " ezek</w>": 1203, " To</w>": 1204, "ája</w>": 1205, " mivel</w>": 1206, "ök</w>": 1207, " lak": 1208, " volt.</w>": 1209, " include</w>": 1210, "ák": 1211, " el,</w>": 1212, "one</w>": 1213, " teljesen</w>": 1214, " U": 1215, " species</w>": 1216, "ság": 1217, "ány</w>": 1218, "ör": 1219, " 2": 1220, "ész": 1221, " e</w>": 1222, " able</w>": 1223, " ezzel</w>": 1224, " következő</w>": 1225, " arra,</w>": 1226, " provide</w>": 1227, "od</w>": 1228, " program</w>": 1229, "ók": 1230, " ügy": 1231, " cím": 1232, " rendszer": 1233, " /</w>": 1234, " Br": 1235, "ions</w>": 1236, "its</w>": 1237, "ok.</w>": 1238, "ay": 1239, " my</w>": 1240, "áj": 1241, "ide</w>": 1242, "ába</w>": 1243, " nap</w>": 1244, " process</w>": 1245, " program": 1246, "ous</w>": 1247, "ud": 1248, " |</w>": 1249, " another</w>": 1250, " egyre</w>": 1251, " idő": 1252, " social</w>": 1253, " víz": 1254, " magas</w>": 1255, " vannak</w>": 1256, " nyom": 1257, "ott.</w>": 1258, " means</w>": 1259, " jár": 1260, "art": 1261, "tion</w>": 1262, "abb</w>": 1263, "ában,</w>": 1264, " ennek</w>": 1265, "ain": 1266, " said</w>": 1267, "ter</w>": 1268, "ity,</w>": 1269, " great</w>": 1270, "ise</w>": 1271, "1.</w>": 1272, " ez": 1273, " change</w>": 1274, "ák,</w>": 1275, " down</w>": 1276, " 1.</w>": 1277, "ép": 1278, " Egy": 1279, "ekben</w>": 1280, "ésére</w>": 1281, "ue</w>": 1282, " kor": 1283, " she</w>": 1284, " term": 1285, " vár": 1286, " gondol": 1287, "2.</w>": 1288, " Y": 1289, "ks</w>": 1290, " termék": 1291, " rend": 1292, " fél": 1293, " pont": 1294, " gy": 1295, " keres": 1296, "ító</w>": 1297, " alkalmaz": 1298, " usually</w>": 1299, " sc": 1300, "áció</w>": 1301, " film": 1302, " world</w>": 1303, "atot</w>": 1304, "let": 1305, " változ": 1306, "ity.</w>": 1307, " set</w>": 1308, "ness</w>": 1309, "ér</w>": 1310, "ent,</w>": 1311, " választ": 1312, " anya</w>": 1313, " fr": 1314, "ág": 1315, " együtt</w>": 1316, " ok": 1317, "ub": 1318, "tam</w>": 1319, "ord": 1320, "us,</w>": 1321, "ers": 1322, " irány": 1323, " based</w>": 1324, "tat": 1325, "ény": 1326, "ium</w>": 1327, " nev": 1328, "etek</w>": 1329, " jut": 1330, " ma</w>": 1331, " marad": 1332, " lett</w>": 1333, " child</w>": 1334, "ond": 1335, "ered</w>": 1336, "ain</w>": 1337, "hető</w>": 1338, " azok</w>": 1339, " 20</w>": 1340, " igény": 1341, " order</w>": 1342, "ey</w>": 1343, "ess</w>": 1344, " example,</w>": 1345, " per</w>": 1346, " gyermek": 1347, "elő</w>": 1348, " ház": 1349, " mind": 1350, " ismer": 1351, " kérdés": 1352, "enek</w>": 1353, " since</w>": 1354, "ait</w>": 1355, " i": 1356, " olvas": 1357, " right</w>": 1358, " dis": 1359, " Meg": 1360, " Most</w>": 1361, "ial</w>": 1362, " ker": 1363, " type</w>": 1364, "tion,</w>": 1365, "ans</w>": 1366, "adó</w>": 1367, " ev": 1368, " due</w>": 1369, " risk</w>": 1370, " egyes</w>": 1371, "ással</w>": 1372, " érdek": 1373, " vis": 1374, " qu": 1375, "ath": 1376, " learning</w>": 1377, "ap</w>": 1378, "fel": 1379, " második</w>": 1380, " best</w>": 1381, " ment": 1382, "alm": 1383, " lehetőség": 1384, " szín": 1385, "ésének</w>": 1386, " épít": 1387, "ti": 1388, " area</w>": 1389, " until</w>": 1390, "it,</w>": 1391, "Sz": 1392, "ult": 1393, "ont": 1394, " 16": 1395, " találkoz": 1396, " men": 1397, "ast": 1398, " túl</w>": 1399, " le": 1400, "erm": 1401, "ációs</w>": 1402, " test</w>": 1403, " ins": 1404, " szív": 1405, " place</w>": 1406, " biztosít": 1407, " following</w>": 1408, "ított</w>": 1409, "s:</w>": 1410, " szex": 1411, " modern</w>": 1412, " end</w>": 1413, "tion.</w>": 1414, " di": 1415, "án,</w>": 1416, " 2.</w>": 1417, " tiszt": 1418, " legnagyobb</w>": 1419, " szükséges</w>": 1420, " National</w>": 1421, " hatás": 1422, " alak": 1423, " Ad": 1424, " belül</w>": 1425, " natural</w>": 1426, " eredmény": 1427, " ért": 1428, "ish</w>": 1429, " ki,</w>": 1430, " And</w>": 1431, " state</w>": 1432, "ou": 1433, "ile</w>": 1434, " haj": 1435, "ése,</w>": 1436, "elt": 1437, "ism</w>": 1438, " Dr.</w>": 1439, " el.</w>": 1440, "ly": 1441, " család": 1442, "is,</w>": 1443, " em": 1444, " Mar": 1445, " among</w>": 1446, " 15": 1447, " Some</w>": 1448, " development</w>": 1449, " 30</w>": 1450, "ász": 1451, "ology</w>": 1452, " better</w>": 1453, "ement</w>": 1454, " terület": 1455, "olt": 1456, "okban</w>": 1457, "unk": 1458, "ory</w>": 1459, " car": 1460, " ön": 1461, "ent.</w>": 1462, " óta</w>": 1463, " aut": 1464, " vál": 1465, " című</w>": 1466, "ra.</w>": 1467, " Cl": 1468, " ugyanis</w>": 1469, "eket.</w>": 1470, " mod": 1471, " lép": 1472, " bar": 1473, "ch</w>": 1474, "am,</w>": 1475, " public</w>": 1476, " control</w>": 1477, ".”</w>": 1478, "ítás</w>": 1479, " ezen</w>": 1480, "aw": 1481, "eg</w>": 1482, "él</w>": 1483, "This</w>": 1484, " Pl": 1485, " 197": 1486, " új": 1487, " Gr": 1488, " bo": 1489, " játék": 1490, "őt</w>": 1491, " year</w>": 1492, " es": 1493, " given</w>": 1494, " fő": 1495, " jelent": 1496, "ized</w>": 1497, "het</w>": 1498, "ak.</w>": 1499, " ebben</w>": 1500, "ants</w>": 1501, " ter": 1502, " ország": 1503, " group</w>": 1504, "ésre</w>": 1505, " tehát</w>": 1506, "ort": 1507, " ahogy</w>": 1508, " fog</w>": 1509, " sor": 1510, "nál</w>": 1511, " éppen</w>": 1512, " =</w>": 1513, "ert</w>": 1514, " mat": 1515, "jon</w>": 1516, " közül</w>": 1517, " support</w>": 1518, "ard</w>": 1519, " szabály": 1520, " last</w>": 1521, "per": 1522, " ny": 1523, " Ar": 1524, " sokkal</w>": 1525, "ált": 1526, "ában.</w>": 1527, " kellett</w>": 1528, "ásra</w>": 1529, " könyv": 1530, "any": 1531, "ekre</w>": 1532, " ut": 1533, " az": 1534, " light</w>": 1535, "ically</w>": 1536, "óz": 1537, " segít": 1538, "ted</w>": 1539, "tions</w>": 1540, "il</w>": 1541, " egyéb</w>": 1542, " school</w>": 1543, "ítás": 1544, "isz": 1545, " maga</w>": 1546, " ,</w>": 1547, "ete</w>": 1548, " foglalkoz": 1549, " elég</w>": 1550, " X": 1551, " ór": 1552, " szinte</w>": 1553, "ett.</w>": 1554, " legyen</w>": 1555, " day</w>": 1556, " videók</w>": 1557, " res": 1558, " dolgoz": 1559, " Pr": 1560, "éssel</w>": 1561, " look</w>": 1562, " imp": 1563, "hely": 1564, " számos</w>": 1565, " likely</w>": 1566, "ól</w>": 1567, "eknek</w>": 1568, " 6</w>": 1569, " válasz": 1570, " tervez": 1571, "aszt": 1572, " One</w>": 1573, " igaz": 1574, "ons</w>": 1575, "uc": 1576, " szóló</w>": 1577, " How</w>": 1578, " adat": 1579, "ell</w>": 1580, "ering</w>": 1581, " major</w>": 1582, " making</w>": 1583, " beszél": 1584, "ere</w>": 1585, " cells</w>": 1586, "qu": 1587, "ült</w>": 1588, " emberek</w>": 1589, " van.</w>": 1590, "ose</w>": 1591, "ern": 1592, " per": 1593, " disease</w>": 1594, "ters</w>": 1595, "ion,</w>": 1596, " erre</w>": 1597, " it.</w>": 1598, "otta</w>": 1599, "ion": 1600, "sh": 1601, " hosszú</w>": 1602, " along</w>": 1603, "ect</w>": 1604, " világ</w>": 1605, " create</w>": 1606, " felhasznál": 1607, " inv": 1608, " various</w>": 1609, " increase</w>": 1610, " learn</w>": 1611, " fal": 1612, " little</w>": 1613, " érdemes</w>": 1614, "ély": 1615, " bőr": 1616, "ice</w>": 1617, " inf": 1618, " 194": 1619, " város": 1620, "-én</w>": 1621, " míg</w>": 1622, " további</w>": 1623, " tag": 1624, " areas</w>": 1625, " rep": 1626, " became</w>": 1627, " women</w>": 1628, "ői</w>": 1629, " hír": 1630, " possible</w>": 1631, "ations.</w>": 1632, "einek</w>": 1633, " történő</w>": 1634, " ajánl": 1635, "ies.</w>": 1636, " föld": 1637, " követ": 1638, " def": 1639, " Tr": 1640, " 0": 1641, "sz</w>": 1642, "öl": 1643, " comm": 1644, "ard": 1645, "int</w>": 1646, "ion.</w>": 1647, "ég": 1648, " go</w>": 1649, " ellen": 1650, " lévő</w>": 1651, " po": 1652, " come</w>": 1653, " government</w>": 1654, "les</w>": 1655, " helyi</w>": 1656, " gener": 1657, " működ": 1658, "ségi</w>": 1659, " játsz": 1660, " bi": 1661, " vide": 1662, " gl": 1663, " helyzet": 1664, " Fr": 1665, " 12": 1666, "őr": 1667, " Ezt</w>": 1668, " want</w>": 1669, "or.</w>": 1670, "ni": 1671, " elv": 1672, " hagy": 1673, "ut</w>": 1674, "ph": 1675, "ják,</w>": 1676, " mar": 1677, "het": 1678, " four</w>": 1679, "ját</w>": 1680, "eken</w>": 1681, "ív": 1682, " pénz": 1683, "3.</w>": 1684, "ója</w>": 1685, "ető": 1686, "okat.</w>": 1687, "ies,</w>": 1688, "ír": 1689, " local</w>": 1690, " pár</w>": 1691, "zés": 1692, " módon</w>": 1693, "alom</w>": 1694, " result</w>": 1695, "ából</w>": 1696, " person</w>": 1697, "ition</w>": 1698, " lo": 1699, " off</w>": 1700, " millió</w>": 1701, " too</w>": 1702, " tör": 1703, "ting</w>": 1704, " 196": 1705, " certain</w>": 1706, " (a</w>": 1707, "ological</w>": 1708, "juk,</w>": 1709, "séget</w>": 1710, " point</w>": 1711, " across</w>": 1712, " 11": 1713, "ize</w>": 1714, "ákat</w>": 1715, " közös</w>": 1716, "ited</w>": 1717, "em.</w>": 1718, " kerül": 1719, " tér": 1720, "ag</w>": 1721, " amelyet</w>": 1722, " 15</w>": 1723, " személy": 1724, "ezett</w>": 1725, " types</w>": 1726, "elő": 1727, " kis": 1728, " million</w>": 1729, "ásának</w>": 1730, " we": 1731, "esebb</w>": 1732, " specific</w>": 1733, " available</w>": 1734, " újra</w>": 1735, " treatment</w>": 1736, "év": 1737, " ezer</w>": 1738, "eng": 1739, "elm": 1740, " keresztül</w>": 1741, " lesz": 1742, "ők": 1743, "ations,</w>": 1744, " verseny": 1745, " ex": 1746, " talán</w>": 1747, "ink": 1748, " him</w>": 1749, "ly,</w>": 1750, "ón": 1751, " ir": 1752, " especially</w>": 1753, " mon": 1754, " comp": 1755, " szervez": 1756, " U.S.</w>": 1757, "pr": 1758, "kez": 1759, "ös</w>": 1760, "our": 1761, " Am": 1762, " ap": 1763, " think</w>": 1764, " fut": 1765, " idő</w>": 1766, "ities</w>": 1767, " személyes</w>": 1768, " lead</w>": 1769, " or": 1770, " In": 1771, "ation": 1772, "ex</w>": 1773, "Ha</w>": 1774, " vezet": 1775, " higher</w>": 1776, " vér": 1777, "na</w>": 1778, " dolg": 1779, " rel": 1780, " reg": 1781, " hív": 1782, " second</w>": 1783, " give</w>": 1784, "ew": 1785, "ej": 1786, " levels</w>": 1787, " met": 1788, " ak": 1789, "adás": 1790, " always</w>": 1791, " 17": 1792, " hoz": 1793, "ely": 1794, "ól": 1795, " similar</w>": 1796, " ill": 1797, " Ennek</w>": 1798, " fejleszt": 1799, " main</w>": 1800, " legalább</w>": 1801, " rec": 1802, "e?</w>": 1803, "it.</w>": 1804, "ához</w>": 1805, " aztán</w>": 1806, " level</w>": 1807, " name</w>": 1808, "ual</w>": 1809, "ám</w>": 1810, " changes</w>": 1811, " history</w>": 1812, " részt</w>": 1813, " tanul": 1814, " áll</w>": 1815, " utolsó</w>": 1816, " times</w>": 1817, " dec": 1818, "ős</w>": 1819, "old": 1820, " akar": 1821, " prostituáltak</w>": 1822, "ony</w>": 1823, "ort</w>": 1824, "zs": 1825, "ű,</w>": 1826, " wh": 1827, " alkot": 1828, "ind": 1829, " lenne</w>": 1830, " [": 1831, " family</w>": 1832, " történ": 1833, " leszbi</w>": 1834, " 100</w>": 1835, " tém": 1836, " keep</w>": 1837, " Így</w>": 1838, " emberi</w>": 1839, "ines</w>": 1840, " szép</w>": 1841, " jobb</w>": 1842, " anyag": 1843, "ey": 1844, " mégis</w>": 1845, " út": 1846, "ie</w>": 1847, "elés</w>": 1848, "ore</w>": 1849, " szül": 1850, "up": 1851, "orr": 1852, " megjelen": 1853, " At</w>": 1854, "sége</w>": 1855, "ery</w>": 1856, "nél</w>": 1857, " lap": 1858, " understand</w>": 1859, " szükség": 1860, " von": 1861, " haz": 1862, "én,</w>": 1863, " több": 1864, " hom": 1865, " inter": 1866, " air</w>": 1867, "éz": 1868, "ád": 1869, " nyelv": 1870, " bas": 1871, "eli</w>": 1872, "5.</w>": 1873, "ta,</w>": 1874, "ez</w>": 1875, " man": 1876, " amount</w>": 1877, " ellát": 1878, " kiv": 1879, " On</w>": 1880, "orn": 1881, "ész</w>": 1882, " valami</w>": 1883, " mér": 1884, "4.</w>": 1885, " 3.</w>": 1886, "ünk.</w>": 1887, "őd": 1888, "eszt": 1889, " brain</w>": 1890, " kö": 1891, "ci": 1892, "ire</w>": 1893, " least</w>": 1894, " 12</w>": 1895, " bet": 1896, "ében.</w>": 1897, " sw": 1898, "okon</w>": 1899, "éd": 1900, "áló</w>": 1901, "ational</w>": 1902, " Sp": 1903, "ika</w>": 1904, "ön</w>": 1905, " mer": 1906, " bor": 1907, "ettek</w>": 1908, "mény": 1909, " show</w>": 1910, " kez": 1911, "ann": 1912, " került</w>": 1913, "o.</w>": 1914, " researchers</w>": 1915, " next</w>": 1916, "ka</w>": 1917, " feltétel": 1918, " work": 1919, " kit": 1920, " 14": 1921, " having</w>": 1922, "0.</w>": 1923, " É": 1924, " things</w>": 1925, " mindenki</w>": 1926, " cég": 1927, " barát": 1928, "esség": 1929, " ki.</w>": 1930, " 8</w>": 1931, "ish": 1932, " develop</w>": 1933, " land</w>": 1934, "atic</w>": 1935, "ia.</w>": 1936, "áció": 1937, " trans": 1938, " szerep": 1939, " et</w>": 1940, "ették</w>": 1941, " fejlőd": 1942, "ont</w>": 1943, " World</w>": 1944, " egészség": 1945, " ac": 1946, " problém": 1947, " physical</w>": 1948, " current</w>": 1949, "omb": 1950, " oldal</w>": 1951, " Köz": 1952, "ages</w>": 1953, " percent</w>": 1954, " erotikus</w>": 1955, " why</w>": 1956, "ony": 1957, " egyetlen</w>": 1958, "-e</w>": 1959, "ém": 1960, "00</w>": 1961, "ence,</w>": 1962, " nemzetközi</w>": 1963, "erg": 1964, " ret": 1965, " általában</w>": 1966, " gyakran</w>": 1967, " szintén</w>": 1968, " language</w>": 1969, "ló</w>": 1970, "anc": 1971, " jelentkez": 1972, "kor</w>": 1973, " By</w>": 1974, "-f": 1975, " Mi</w>": 1976, "ina</w>": 1977, " bizony": 1978, " 195": 1979, " szakmai</w>": 1980, "end</w>": 1981, "ésével</w>": 1982, "ítani</w>": 1983, " kedv": 1984, " feladat": 1985, " nő</w>": 1986, " whether</w>": 1987, "-m": 1988, " something</w>": 1989, " low</w>": 1990, "unk.</w>": 1991, " developed</w>": 1992, " Par": 1993, " ed": 1994, " sok": 1995, "is.</w>": 1996, " vonatkozó</w>": 1997, " inc": 1998, " elmúlt</w>": 1999, " he": 2000, " mell": 2001, "ach": 2002, "ítja</w>": 2003, " nép": 2004, " kapcsolat": 2005, "ány": 2006, " Ezek</w>": 2007, " as": 2008, " követően</w>": 2009, "iai</w>": 2010, " nők</w>": 2011, "ór": 2012, " makes</w>": 2013, " évi</w>": 2014, " kapcsolatos</w>": 2015, "áb": 2016, "es:</w>": 2017, "as,</w>": 2018, "úz": 2019, " te": 2020, "óban</w>": 2021, " population</w>": 2022, "oly": 2023, " results</w>": 2024, "enn": 2025, " kar": 2026, " role</w>": 2027, " összes</w>": 2028, " After</w>": 2029, "anak</w>": 2030, "elem</w>": 2031, "oknak</w>": 2032, "atos</w>": 2033, " jav": 2034, " An</w>": 2035, " plant</w>": 2036, " op": 2037, "okra</w>": 2038, " bár</w>": 2039, " however,</w>": 2040, "ment": 2041, " közben</w>": 2042, " kívül</w>": 2043, " se</w>": 2044, " out": 2045, "let</w>": 2046, " csajok</w>": 2047, " megt": 2048, " tovább</w>": 2049, "ít</w>": 2050, " further</w>": 2051, " left</w>": 2052, " miért</w>": 2053, " prot": 2054, " dönt": 2055, " it’s</w>": 2056, " képes</w>": 2057, " States</w>": 2058, " them.</w>": 2059, " working</w>": 2060, "ry</w>": 2061, "ments</w>": 2062, "ítő</w>": 2063, " later</w>": 2064, " young</w>": 2065, " folytat": 2066, " Gy": 2067, " kicsit</w>": 2068, " található</w>": 2069, " present</w>": 2070, " enough</w>": 2071, " használat": 2072, " igen</w>": 2073, " 13": 2074, "ük,</w>": 2075, "ében,</w>": 2076, " hall": 2077, " range</w>": 2078, " ass": 2079, "all</w>": 2080, " plants</w>": 2081, " azon</w>": 2082, " 50</w>": 2083, "zés</w>": 2084, "ul,</w>": 2085, " either</w>": 2086, "tive</w>": 2087, " rendszer</w>": 2088, " két": 2089, " rá</w>": 2090, " bev": 2091, "é,</w>": 2092, " on": 2093, "enti": 2094, "ly.</w>": 2095, "ző</w>": 2096, " szabad": 2097, " szól": 2098, " case</w>": 2099, " fin": 2100, "kép": 2101, " mai</w>": 2102, " hib": 2103, " szob": 2104, "atlan</w>": 2105, "00": 2106, " elm": 2107, " lower</w>": 2108, " free</w>": 2109, " rather</w>": 2110, " time,</w>": 2111, " associated</w>": 2112, " While</w>": 2113, "ected</w>": 2114, " Mind": 2115, " fő</w>": 2116, " ellen</w>": 2117, " home</w>": 2118, "va,</w>": 2119, " 1": 2120, "oll": 2121, " jobban</w>": 2122, "yl": 2123, "ás.</w>": 2124, " melyek</w>": 2125, " considered</w>": 2126, "-s": 2127, "ular</w>": 2128, "...</w>": 2129, " British</w>": 2130, " tud</w>": 2131, "ised</w>": 2132, "son</w>": 2133, " seen</w>": 2134, "ért": 2135, "ény</w>": 2136, "ó.</w>": 2137, "ker": 2138, " hozzá</w>": 2139, " fiatal</w>": 2140, " okoz": 2141, "ear": 2142, "in,</w>": 2143, "ikai</w>": 2144, " far</w>": 2145, "esek</w>": 2146, " gyógy": 2147, "tic</w>": 2148, " mód": 2149, " reduce</w>": 2150, " gu": 2151, " climate</w>": 2152, " Á": 2153, "ekt": 2154, "tól</w>": 2155, " támogatás": 2156, "akat</w>": 2157, "tem</w>": 2158, "bb": 2159, "ezés</w>": 2160, " történet": 2161, " never</w>": 2162, "ék,</w>": 2163, " With</w>": 2164, " törvény": 2165, " put</w>": 2166, " korábban</w>": 2167, " produce</w>": 2168, " Ön</w>": 2169, " megold": 2170, "ően</w>": 2171, "ill</w>": 2172, " újabb</w>": 2173, " surface</w>": 2174, " heart</w>": 2175, " age</w>": 2176, " lehet": 2177, " rem": 2178, " ur": 2179, "enc": 2180, " effects</w>": 2181, " szervezet": 2182, "ently</w>": 2183, " 7</w>": 2184, " ab": 2185, " családi</w>": 2186, "íz": 2187, " túl": 2188, " symptoms</w>": 2189, " vit": 2190, "els</w>": 2191, " rendelkez": 2192, " problems</w>": 2193, " lég": 2194, " évek</w>": 2195, "ee</w>": 2196, " exp": 2197, " already</w>": 2198, " zár": 2199, " később</w>": 2200, " álló</w>": 2201, "ick": 2202, " individual</w>": 2203, " above</w>": 2204, " mű": 2205, " perc": 2206, "áról</w>": 2207, " arc": 2208, " 20": 2209, "ari": 2210, "ins</w>": 2211, " lev": 2212, "6.</w>": 2213, " en": 2214, " eszköz": 2215, " teljesít": 2216, " érdeklőd": 2217, "ió</w>": 2218, " szolgál": 2219, " érett</w>": 2220, "től</w>": 2221, "zet": 2222, "ezte</w>": 2223, "tt": 2224, " English</w>": 2225, " North</w>": 2226, "arm": 2227, " iskol": 2228, " med": 2229, " nemcsak</w>": 2230, "ter,</w>": 2231, "ock": 2232, " belső</w>": 2233, "st</w>": 2234, " time.</w>": 2235, " régi</w>": 2236, "ített</w>": 2237, "9.</w>": 2238, " ül": 2239, " segítségével</w>": 2240, " szeret": 2241, " foly": 2242, " caused</w>": 2243, "ön": 2244, "ségek</w>": 2245, "ros": 2246, " En": 2247, " mikor</w>": 2248, " hatalmas</w>": 2249, "ainak</w>": 2250, " fény": 2251, " adatok</w>": 2252, " single</w>": 2253, " period</w>": 2254, " esetében</w>": 2255, " 18": 2256, " significant</w>": 2257, " her": 2258, " end": 2259, "ök": 2260, " men</w>": 2261, "201": 2262, " szok": 2263, " Minden</w>": 2264, "e)</w>": 2265, " Min": 2266, " taken</w>": 2267, " problem</w>": 2268, " created</w>": 2269, "8.</w>": 2270, " jelentős</w>": 2271, " mondta</w>": 2272, " related</w>": 2273, "ace</w>": 2274, "ank": 2275, " hazai</w>": 2276, " amerikai</w>": 2277, "ve,</w>": 2278, " live</w>": 2279, " gyárt": 2280, " ability</w>": 2281, "ake</w>": 2282, "ight": 2283, " systems</w>": 2284, "ying</w>": 2285, " key</w>": 2286, " társ": 2287, " voltak</w>": 2288, "iss": 2289, " évben</w>": 2290, "ight</w>": 2291, "rit": 2292, " sub": 2293, "ay,</w>": 2294, " Er": 2295, " increased</w>": 2296, " természetes</w>": 2297, " módszer": 2298, " éve</w>": 2299, "ic,</w>": 2300, "ese</w>": 2301, "-1": 2302, "ettel</w>": 2303, " minden": 2304, "ottak</w>": 2305, " came</w>": 2306, "heti</w>": 2307, " Fel": 2308, " Isten</w>": 2309, " bizonyos</w>": 2310, " szél": 2311, " díj": 2312, "ítása</w>": 2313, " kerül</w>": 2314, " férfi</w>": 2315, " E</w>": 2316, " szabad</w>": 2317, " láb": 2318, " jelent</w>": 2319, " fi": 2320, " vissza</w>": 2321, " word</w>": 2322, " azzal</w>": 2323, " be,</w>": 2324, " potential</w>": 2325, " needs</w>": 2326, "za</w>": 2327, " John</w>": 2328, "ette,</w>": 2329, "ne</w>": 2330, " sikerült</w>": 2331, "ista</w>": 2332, "ains</w>": 2333, " almost</w>": 2334, "ása,</w>": 2335, " mutat": 2336, "rel</w>": 2337, " began</w>": 2338, " att": 2339, " (1": 2340, "ons": 2341, "eni,</w>": 2342, " says</w>": 2343, " része</w>": 2344, " Qu": 2345, "ability</w>": 2346, "ébe</w>": 2347, " vesz": 2348, " y": 2349, " fel,</w>": 2350, "eth": 2351, " tevékenység": 2352, " csoport": 2353, " Ed": 2354, "ust</w>": 2355, " others</w>": 2356, " Európai</w>": 2357, "íti</w>": 2358, " először</w>": 2359, "elet": 2360, "7.</w>": 2361, " id": 2362, "old</w>": 2363, "EL": 2364, " part": 2365, " tel": 2366, " eddig</w>": 2367, " elem": 2368, "SZ": 2369, " nem": 2370, "esség</w>": 2371, " négy</w>": 2372, "ú,</w>": 2373, "ező</w>": 2374, "gr": 2375, " gyerek": 2376, " studies</w>": 2377, "ásával</w>": 2378, " side</w>": 2379, " punci</w>": 2380, "ást,</w>": 2381, "oló</w>": 2382, "esít": 2383, " zen": 2384, "ator</w>": 2385, " Or": 2386, " cannot</w>": 2387, "d,</w>": 2388, " medical</w>": 2389, "ására</w>": 2390, " going</w>": 2391, " emlék": 2392, " throughout</w>": 2393, " loc": 2394, " siker": 2395, "ack</w>": 2396, " understanding</w>": 2397, " let": 2398, ",000</w>": 2399, " All</w>": 2400, " living</w>": 2401, " political</w>": 2402, " előny": 2403, " start</w>": 2404, " szint": 2405, "öv": 2406, " dev": 2407, " műv": 2408, " experience</w>": 2409, " according</w>": 2410, " South</w>": 2411, " Hogyan</w>": 2412, " together</w>": 2413, "adás</w>": 2414, " fél</w>": 2415, " milf</w>": 2416, " európai</w>": 2417, "ezni</w>": 2418, " evidence</w>": 2419, " készül": 2420, " care</w>": 2421, " fordul": 2422, " azt,</w>": 2423, " elér": 2424, " white</w>": 2425, " ways</w>": 2426, " -": 2427, " 193": 2428, " ag": 2429, " ország</w>": 2430, " words</w>": 2431, " Nagy</w>": 2432, " cell</w>": 2433, "ost": 2434, " állapot": 2435, " oper": 2436, "ox": 2437, "ality</w>": 2438, " impact</w>": 2439, " general</w>": 2440, " köszön": 2441, " készült</w>": 2442, " source</w>": 2443, "our</w>": 2444, " conditions</w>": 2445, "e’s</w>": 2446, " lehet,</w>": 2447, "egy</w>": 2448, " near</w>": 2449, " videó</w>": 2450, " vagyok</w>": 2451, " azaz</w>": 2452, " Id": 2453, "ust": 2454, " érdekében</w>": 2455, "án.</w>": 2456, " környezet": 2457, " persze</w>": 2458, " prevent</w>": 2459, " Bi": 2460, " közel": 2461, "-d": 2462, "oszt": 2463, " sk": 2464, " felv": 2465, " következ": 2466, " coll": 2467, " fogyaszt": 2468, "ós": 2469, " nő": 2470, " access</w>": 2471, "ang</w>": 2472, "ists</w>": 2473, "szt": 2474, " parts</w>": 2475, " took</w>": 2476, " material</w>": 2477, " global</w>": 2478, "ign": 2479, " hasonló</w>": 2480, " tár": 2481, " hand": 2482, " rendez": 2483, " igazán</w>": 2484, "lat": 2485, "ma</w>": 2486, " stat": 2487, " ver": 2488, "ats</w>": 2489, " amelynek</w>": 2490, " five</w>": 2491, " actually</w>": 2492, "ures</w>": 2493, "ót": 2494, "ection</w>": 2495, "ője</w>": 2496, " Many</w>": 2497, " gazdasági</w>": 2498, " upon</w>": 2499, " Ac": 2500, " published</w>": 2501, " rev": 2502, " value</w>": 2503, "ható,</w>": 2504, " arról,</w>": 2505, " pina</w>": 2506, " rossz</w>": 2507, "ass</w>": 2508, " lelk": 2509, "jár": 2510, "umb": 2511, "ület": 2512, " harmadik</w>": 2513, " line</w>": 2514, " különösen</w>": 2515, " scientists</w>": 2516, " days</w>": 2517, " provides</w>": 2518, " pár": 2519, " Ny": 2520, " knowledge</w>": 2521, "ásban</w>": 2522, " te</w>": 2523, " production</w>": 2524, "hatja</w>": 2525, " all": 2526, " folyamatosan</w>": 2527, " full</w>": 2528, "adt</w>": 2529, " neki</w>": 2530, " német</w>": 2531, " design</w>": 2532, " de": 2533, "inc": 2534, "ade</w>": 2535, "ence.</w>": 2536, "air": 2537, " é": 2538, " pal": 2539, " kormány": 2540, "ong": 2541, " ro": 2542, " technology</w>": 2543, " rendel": 2544, " don’t</w>": 2545, " közötti</w>": 2546, " not": 2547, " say</w>": 2548, " küld": 2549, " Ft</w>": 2550, " once</w>": 2551, " old": 2552, " legtöbb</w>": 2553, "séges</w>": 2554, " Reg": 2555, "őben</w>": 2556, " particular</w>": 2557, "us.</w>": 2558, "öz": 2559, " eset": 2560, " súly": 2561, " szolgáltatás": 2562, " össze</w>": 2563, "ani,</w>": 2564, " space</w>": 2565, " away</w>": 2566, " véd": 2567, " csapat": 2568, "ash": 2569, " really</w>": 2570, " black</w>": 2571, " élő</w>": 2572, " bal": 2573, " read</w>": 2574, "koz": 2575, "ave</w>": 2576, " team</w>": 2577, " is": 2578, " megv": 2579, "-c": 2580, " 18</w>": 2581, " sport": 2582, "2,</w>": 2583, " 191": 2584, " mozg": 2585, "kal</w>": 2586, " led</w>": 2587, " activity</w>": 2588, "ését,</w>": 2589, " pat": 2590, " causes</w>": 2591, " example</w>": 2592, " size</w>": 2593, " tanács": 2594, "rom": 2595, " őket</w>": 2596, " teszi</w>": 2597, "ati": 2598, " tölt": 2599, " kisebb</w>": 2600, " folyamat": 2601, "ute</w>": 2602, "ick</w>": 2603, " equ": 2604, " Az": 2605, " War</w>": 2606, " érint": 2607, "art</w>": 2608, "olni</w>": 2609, " részlet": 2610, " 4.</w>": 2611, " So</w>": 2612, " mindent</w>": 2613, "act": 2614, " economic</w>": 2615, " törvény</w>": 2616, " Em": 2617, " egészen</w>": 2618, " inst": 2619, "enci": 2620, " pressure</w>": 2621, "ák.</w>": 2622, "kor": 2623, "étel": 2624, " Bar": 2625, " education</w>": 2626, " book</w>": 2627, " over": 2628, " csap": 2629, " vállal": 2630, " old</w>": 2631, "og</w>": 2632, "éséhez</w>": 2633, "éről</w>": 2634, "uló</w>": 2635, "ő.</w>": 2636, "tions.</w>": 2637, " simple</w>": 2638, "itt": 2639, " effect</w>": 2640, " rate</w>": 2641, " vélemény": 2642, " tudja</w>": 2643, " íz": 2644, "óval</w>": 2645, " ám</w>": 2646, " growth</w>": 2647, "of": 2648, " Azt</w>": 2649, "ják.</w>": 2650, "ető</w>": 2651, " könnyen</w>": 2652, "ge</w>": 2653, "ük": 2654, " web": 2655, " sokat</w>": 2656, " meghatároz": 2657, " ismét</w>": 2658, "osz": 2659, " soil</w>": 2660, "-es</w>": 2661, " ezeket</w>": 2662, " Pro": 2663, " általános</w>": 2664, " ünnep": 2665, " óra</w>": 2666, " közel</w>": 2667, "enz": 2668, " list": 2669, " végén</w>": 2670, " végül</w>": 2671, "om.</w>": 2672, " kínál": 2673, " +</w>": 2674, "ure,</w>": 2675, "az</w>": 2676, " shows</w>": 2677, "ja": 2678, " napi</w>": 2679, " Rom": 2680, " carbon</w>": 2681, " 40</w>": 2682, "n,</w>": 2683, " :</w>": 2684, "ied</w>": 2685, " gyógyszer": 2686, " betegség": 2687, " többi</w>": 2688, " els": 2689, " Nemzeti</w>": 2690, " pred": 2691, " Magyarország</w>": 2692, " Amikor</w>": 2693, " porn": 2694, "age,</w>": 2695, " tri": 2696, " külön</w>": 2697, " abban</w>": 2698, " gyorsan</w>": 2699, " arról</w>": 2700, " amatőr</w>": 2701, " nehéz</w>": 2702, " play</w>": 2703, " vel": 2704, " done</w>": 2705, "nyi</w>": 2706, " bír": 2707, "usok</w>": 2708, " gép": 2709, "ulás": 2710, "ív</w>": 2711, " segítség": 2712, " jelen</w>": 2713, " building</w>": 2714, "leg": 2715, "ich": 2716, "AT": 2717, " benn": 2718, "ra": 2719, " wor": 2720, " nyer": 2721, " köszönhetően</w>": 2722, "land</w>": 2723, " comes</w>": 2724, " vezető": 2725, " esemény": 2726, "bl": 2727, " fia</w>": 2728, "ays</w>": 2729, "ail</w>": 2730, " effective</w>": 2731, " kell": 2732, "ack": 2733, "attal</w>": 2734, " future</w>": 2735, "tet": 2736, " korábbi</w>": 2737, " nek": 2738, "ad,</w>": 2739, " idén</w>": 2740, " sometimes</w>": 2741, " groups</w>": 2742, " difficult</w>": 2743, "ezet": 2744, " term</w>": 2745, "ára,</w>": 2746, "ulation</w>": 2747, " vált": 2748, " required</w>": 2749, "am.</w>": 2750, "ong</w>": 2751, " though</w>": 2752, " war": 2753, " hét</w>": 2754, "ával,</w>": 2755, " animals</w>": 2756, "ites</w>": 2757, "ol,</w>": 2758, " Although</w>": 2759, "mény</w>": 2760, " igazi</w>": 2761, " science</w>": 2762, " valaki</w>": 2763, " mut": 2764, " csinál": 2765, "ható.</w>": 2766, "alt</w>": 2767, " érkez": 2768, " fact</w>": 2769, " vers": 2770, "elni</w>": 2771, " sure</w>": 2772, " kn": 2773, "im</w>": 2774, " kezelés</w>": 2775, " cancer</w>": 2776, "rend": 2777, " politikai</w>": 2778, " open</w>": 2779, " national</w>": 2780, " kapott</w>": 2781, " field</w>": 2782, " város</w>": 2783, "-b": 2784, " activities</w>": 2785, " quality</w>": 2786, " élet</w>": 2787, " it": 2788, " azokat</w>": 2789, " variety</w>": 2790, " értelm": 2791, "ságot</w>": 2792, "ful</w>": 2793, " ide": 2794, " hozz": 2795, " Res": 2796, " us": 2797, "ünk": 2798, "szer</w>": 2799, "he": 2800, "köz": 2801, " head": 2802, " conf": 2803, "ects</w>": 2804, "tion": 2805, " számít": 2806, " patients</w>": 2807, " temperature</w>": 2808, " Nagy": 2809, "ani.</w>": 2810, " Di": 2811, " community</w>": 2812, " valam": 2813, " komoly</w>": 2814, " student</w>": 2815, " csupán</w>": 2816, "be,</w>": 2817, " bejelent": 2818, "én.</w>": 2819, "ein</w>": 2820, " ugyan": 2821, " countries</w>": 2822, "ését.</w>": 2823, ".\"</w>": 2824, " jegy": 2825, " Fl": 2826, " here</w>": 2827, " whole</w>": 2828, " kész": 2829, " shown</w>": 2830, "eas": 2831, " oldalak</w>": 2832, " fest": 2833, "oss": 2834, " kezelése</w>": 2835, " fot": 2836, " est": 2837, " 19": 2838, " Ph": 2839, "usz": 2840, " tárgy": 2841, " felt": 2842, " darab": 2843, "are</w>": 2844, "ink</w>": 2845, " function</w>": 2846, "elv": 2847, " lot</w>": 2848, "1,</w>": 2849, " be.</w>": 2850, "ans": 2851, " method</w>": 2852, " benne</w>": 2853, " val": 2854, " ear": 2855, "und": 2856, "elés": 2857, " esz": 2858, "ásokat</w>": 2859, " 25": 2860, " ford": 2861, " mintha</w>": 2862, "ip</w>": 2863, "nie</w>": 2864, "ba,</w>": 2865, " egyszer</w>": 2866, ",”</w>": 2867, " péld": 2868, " idea</w>": 2869, " Ezért</w>": 2870, "inal</w>": 2871, " helyen</w>": 2872, " Bal": 2873, "ította</w>": 2874, " rövid</w>": 2875, "Ez</w>": 2876, " cons": 2877, " csökkent": 2878, " allow</w>": 2879, " Cr": 2880, "osabb</w>": 2881, "óan</w>": 2882, "abb": 2883, " állam": 2884, "inek</w>": 2885, "ezt": 2886, " hát": 2887, " pos": 2888, " semmi</w>": 2889, " feel</w>": 2890, " country</w>": 2891, " add": 2892, " István</w>": 2893, " environmental</w>": 2894, " log": 2895, " tekint": 2896, " produced</w>": 2897, "orm": 2898, " elsősorban</w>": 2899, " recent</w>": 2900, "ics,</w>": 2901, " loss</w>": 2902, " fizet": 2903, " egymás": 2904, "-án</w>": 2905, " sal": 2906, "ance.</w>": 2907, " hum": 2908, "oh": 2909, " improve</w>": 2910, " lef": 2911, " greater</w>": 2912, "essz": 2913, "50</w>": 2914, " biztonság": 2915, "amp": 2916, "0,</w>": 2917, "tions,</w>": 2918, " láthat": 2919, " vagyis</w>": 2920, "oth": 2921, "ia": 2922, " (m": 2923, " class</w>": 2924, " volt": 2925, " Ex": 2926, " enged": 2927, "ys": 2928, " (200": 2929, "nia</w>": 2930, "jük,</w>": 2931, "ach</w>": 2932, " generally</w>": 2933, " elfogad": 2934, "ést,</w>": 2935, "ai,</w>": 2936, " total</w>": 2937, "ER": 2938, " Sch": 2939, "eny": 2940, "What</w>": 2941, "ezés": 2942, " det": 2943, "app": 2944, " osztály": 2945, " century</w>": 2946, " nyújt": 2947, " high": 2948, " természetesen</w>": 2949, " állít": 2950, "ású</w>": 2951, "ea</w>": 2952, "sal</w>": 2953, " reading</w>": 2954, "ség,</w>": 2955, " László</w>": 2956, " designed</w>": 2957, "ious</w>": 2958, "ókat</w>": 2959, "ic.</w>": 2960, " elleni</w>": 2961, " thought</w>": 2962, "éseket</w>": 2963, " gas</w>": 2964, " utaz": 2965, " Ag": 2966, " forg": 2967, " uses</w>": 2968, " felnőtt</w>": 2969, " magát</w>": 2970, "osság": 2971, " alábbi</w>": 2972, " vezető</w>": 2973, " top</w>": 2974, " Csak</w>": 2975, "úr": 2976, " minőség": 2977, " includes</w>": 2978, " provided</w>": 2979, " lány": 2980, " int": 2981, " mély": 2982, " kim": 2983, " Nagyon</w>": 2984, "-t": 2985, " szop": 2986, " basic</w>": 2987, " intézmény": 2988, " skills</w>": 2989, " resources</w>": 2990, " That</w>": 2991, " hol": 2992, " Itt</w>": 2993, "etr": 2994, "eni.</w>": 2995, " close</w>": 2996, "emb": 2997, " kell,</w>": 2998, " 25</w>": 2999, "ale</w>": 3000, " healthy</w>": 3001, " pro": 3002, " azonnal</w>": 3003, " materials</w>": 3004, " mos": 3005, " masszázs</w>": 3006, " needed</w>": 3007, " kéz": 3008, " project</w>": 3009, "új": 3010, "iszt": 3011, " special</w>": 3012, " megfelelően</w>": 3013, " Én</w>": 3014, " kíván": 3015, "e;</w>": 3016, "elet</w>": 3017, "mer": 3018, "als,</w>": 3019, "ho": 3020, "árt": 3021, " győz": 3022, "óra</w>": 3023, " questions</w>": 3024, " original</w>": 3025, " tw": 3026, " short</w>": 3027, "ológiai</w>": 3028, "ály": 3029, " hon": 3030, " helps</w>": 3031, "ors": 3032, "ulás</w>": 3033, " megh": 3034, " paper</w>": 3035, "tiv": 3036, " European</w>": 3037, "3,</w>": 3038, "jen</w>": 3039, " melynek</w>": 3040, " particularly</w>": 3041, " tovább": 3042, " model</w>": 3043, " cég</w>": 3044, " annyira</w>": 3045, " produc": 3046, "őz": 3047, "kol": 3048, "ük.</w>": 3049, "gel</w>": 3050, "acy</w>": 3051, " Bl": 3052, " past</w>": 3053, " beteg": 3054, "ona</w>": 3055, " taking</w>": 3056, "eink</w>": 3057, " napon</w>": 3058, " built</w>": 3059, " Nap": 3060, " fel.</w>": 3061, "ible</w>": 3062, " számára.</w>": 3063, " leír": 3064, "ama</w>": 3065, " felé</w>": 3066, " tim": 3067, "hatnak</w>": 3068, " gond": 3069, " years.</w>": 3070, "ebb": 3071, " ad</w>": 3072, "tim": 3073, " szenved": 3074, "tional</w>": 3075, " Szent</w>": 3076, " heat</w>": 3077, " legfontosabb</w>": 3078, "telen</w>": 3079, " solar</w>": 3080, "ítés</w>": 3081, " half</w>": 3082, "ner</w>": 3083, " move</w>": 3084, "ce</w>": 3085, " tapasztal": 3086, "jának</w>": 3087, " szervezet</w>": 3088, " factors</w>": 3089, " évvel</w>": 3090, " lányok</w>": 3091, " pap": 3092, " ref": 3093, " hónap": 3094, " strong</w>": 3095, " melyet</w>": 3096, " fekete</w>": 3097, " vágy": 3098, "tra</w>": 3099, "Nem</w>": 3100, " Gu": 3101, " cont": 3102, "és.</w>": 3103, " exc": 3104, " költ": 3105, "ined</w>": 3106, " developing</w>": 3107, "ésben</w>": 3108, "ettem</w>": 3109, "jában</w>": 3110, " terv": 3111, " site</w>": 3112, " természet": 3113, " figyel": 3114, "ól,</w>": 3115, " war</w>": 3116, " alk": 3117, "4,</w>": 3118, " members</w>": 3119, " szemben</w>": 3120, "ron</w>": 3121, " Dr": 3122, " költség": 3123, " vendég": 3124, " I.</w>": 3125, "5,</w>": 3126, "ET": 3127, "Egy</w>": 3128, " egyszerű</w>": 3129, "io</w>": 3130, " jelenleg</w>": 3131, "ination</w>": 3132, "ors,</w>": 3133, " elkezd": 3134, "tel": 3135, " Le": 3136, " szükség</w>": 3137, " veszély": 3138, " egyébként</w>": 3139, " hard</w>": 3140, "ón</w>": 3141, " Mivel</w>": 3142, "almi</w>": 3143, " Ev": 3144, " Kft.</w>": 3145, " mil": 3146, " Rec": 3147, "ára.</w>": 3148, " vele</w>": 3149, " contr": 3150, " written</w>": 3151, " course</w>": 3152, " termék</w>": 3153, "ches</w>": 3154, "védelmi</w>": 3155, " fogad": 3156, "ah</w>": 3157, " longer</w>": 3158, "len</w>": 3159, " computer</w>": 3160, " lab": 3161, " függ": 3162, " megtalál": 3163, "istic</w>": 3164, " pont</w>": 3165, " determine</w>": 3166, "8,</w>": 3167, " lány</w>": 3168, " valóban</w>": 3169, "ean</w>": 3170, "oy": 3171, " Leg": 3172, " Research</w>": 3173, "form": 3174, "ure.</w>": 3175, " vonatkoz": 3176, " lehetővé</w>": 3177, " 9</w>": 3178, "os.</w>": 3179, " betegség</w>": 3180, "aking</w>": 3181, "gal</w>": 3182, " szó</w>": 3183, " city</w>": 3184, " below</w>": 3185, " egyszerűen</w>": 3186, " complex</w>": 3187, "ható": 3188, " fed": 3189, "ana</w>": 3190, "ash</w>": 3191, " me</w>": 3192, "9,</w>": 3193, " het": 3194, " élvez": 3195, "uss": 3196, "ig.</w>": 3197, "ax": 3198, " cases</w>": 3199, " ellenére</w>": 3200, "asz</w>": 3201, "ay.</w>": 3202, "ése.</w>": 3203, " me": 3204, " harc": 3205, " összeg": 3206, "ók,</w>": 3207, " minél</w>": 3208, " read": 3209, " mo": 3210, " bemutat": 3211, "ur</w>": 3212, "ven": 3213, " at": 3214, " real</w>": 3215, " Ez": 3216, " cikk": 3217, "ured</w>": 3218, " forms</w>": 3219, " képz": 3220, " János</w>": 3221, " necessary</w>": 3222, "olás</w>": 3223, " épület": 3224, " gen": 3225, "hogy</w>": 3226, " bul": 3227, "ici": 3228, "é.</w>": 3229, "ene</w>": 3230, " pre": 3231, " ö": 3232, "ött": 3233, "bi": 3234, "erv": 3235, "ter.</w>": 3236, " zs": 3237, " nyug": 3238, " kormány</w>": 3239, "If</w>": 3240, " practice</w>": 3241, " Szer": 3242, " skin</w>": 3243, "len": 3244, " har": 3245, "etlen</w>": 3246, " vagy": 3247, " off": 3248, " esetleg</w>": 3249, "eral</w>": 3250, "-k": 3251, "tö": 3252, " pol": 3253, " pass": 3254, "szerű</w>": 3255, "óv": 3256, " ők</w>": 3257, "ess,</w>": 3258, " hallgat": 3259, " prec": 3260, "ónak</w>": 3261, "AR": 3262, " jelen": 3263, "ics": 3264, " ruh": 3265, " 5.</w>": 3266, "őv": 3267, "iting</w>": 3268, "res": 3269, "In": 3270, " megvalós": 3271, " primary</w>": 3272, " J.</w>": 3273, "ear</w>": 3274, " dep": 3275, "age.</w>": 3276, " structure</w>": 3277, "szak": 3278, " terms</w>": 3279, " erős</w>": 3280, "ored</w>": 3281, " tanulmány": 3282, " Budapest</w>": 3283, "atív</w>": 3284, "omp": 3285, " határoz": 3286, " engedély": 3287, "ching</w>": 3288, " nekem</w>": 3289, " időszak": 3290, " ég": 3291, "etet</w>": 3292, " tesz": 3293, "als.</w>": 3294, " article</w>": 3295, "ind</w>": 3296, " pres": 3297, " col": 3298, "ári</w>": 3299, "act</w>": 3300, "ail": 3301, "6,</w>": 3302, "ith": 3303, " larger</w>": 3304, " cat": 3305, "ország</w>": 3306, " up": 3307, "term": 3308, "ház": 3309, " ov": 3310, " Be": 3311, " During</w>": 3312, "tik": 3313, "arg": 3314, "ős": 3315, " különleges</w>": 3316, " story</w>": 3317, " post": 3318, " elh": 3319, "ori</w>": 3320, " x</w>": 3321, " u": 3322, " őr": 3323, " spr": 3324, "ozó</w>": 3325, " Co": 3326, "éb": 3327, " amíg</w>": 3328, "tunk</w>": 3329, " require</w>": 3330, "árok</w>": 3331, " simply</w>": 3332, "út</w>": 3333, " mi": 3334, " Magyarországon</w>": 3335, " nyit": 3336, "ján</w>": 3337, "It</w>": 3338, "ance,</w>": 3339, " states</w>": 3340, " megismer": 3341, " por": 3342, "eri": 3343, " level": 3344, "rop": 3345, " probably</w>": 3346, "ening</w>": 3347, " ahhoz,</w>": 3348, " bre": 3349, "row": 3350, " otthon": 3351, " writing</w>": 3352, "őj": 3353, " ancient</w>": 3354, " tal": 3355, "ius</w>": 3356, "vis": 3357, " szav": 3358, " képesség": 3359, "ték</w>": 3360, "ület</w>": 3361, " március</w>": 3362, " aff": 3363, "7,</w>": 3364, " environment</w>": 3365, " clear</w>": 3366, " trav": 3367, " társadalmi</w>": 3368, " orvos": 3369, "El": 3370, " animal</w>": 3371, "ty</w>": 3372, " years,</w>": 3373, " felk": 3374, "ül,</w>": 3375, " 14</w>": 3376, " rendezvény": 3377, " approach</w>": 3378, " Health</w>": 3379, " themselves</w>": 3380, " report</w>": 3381, " late</w>": 3382, " although</w>": 3383, "e's</w>": 3384, " továbbra</w>": 3385, " csatlakoz": 3386, "ügyi</w>": 3387, "szám": 3388, "acs": 3389, "iat": 3390, " biz": 3391, "op</w>": 3392, "ót,</w>": 3393, " továbbá</w>": 3394, "ine,</w>": 3395, "ple</w>": 3396, " --</w>": 3397, " fe": 3398, " yet</w>": 3399, "ulat": 3400, "usz</w>": 3401, " úgy,</w>": 3402, " prób": 3403, " út</w>": 3404, " works</w>": 3405, " gyermek</w>": 3406, " said.</w>": 3407, " allows</w>": 3408, " fil": 3409, " mark": 3410, " individuals</w>": 3411, " alá</w>": 3412, "ult,</w>": 3413, " law</w>": 3414, "uk,</w>": 3415, " His</w>": 3416, "ably</w>": 3417, " egy-egy</w>": 3418, "álisan</w>": 3419, " Ab": 3420, " külső</w>": 3421, " normal</w>": 3422, " Is": 3423, "od,</w>": 3424, "ate,</w>": 3425, "a)</w>": 3426, "ization</w>": 3427, " 1.": 3428, "abl": 3429, " idej": 3430, " eredeti</w>": 3431, " civil</w>": 3432, " utóbbi</w>": 3433, " öt</w>": 3434, "jai</w>": 3435, "endő</w>": 3436, " occur</w>": 3437, " complete</w>": 3438, " fenntart": 3439, "ig,</w>": 3440, " takes</w>": 3441, " felület": 3442, "elte</w>": 3443, " Hogy</w>": 3444, "au": 3445, " hit": 3446, "lás</w>": 3447, " differ": 3448, " cur": 3449, " thus</w>": 3450, " entire</w>": 3451, " rendkívül</w>": 3452, " helyett</w>": 3453, " State</w>": 3454, "kod": 3455, "óság": 3456, " ph": 3457, " május</w>": 3458, " köt": 3459, "man</w>": 3460, " SZ": 3461, " január</w>": 3462, " közép": 3463, " soha</w>": 3464, "elem": 3465, "ől</w>": 3466, " rights</w>": 3467, "arr": 3468, " hol</w>": 3469, " piac": 3470, " szakasz": 3471, " growing</w>": 3472, "ective</w>": 3473, " to": 3474, " average</w>": 3475, " bank": 3476, " vet": 3477, " S</w>": 3478, " non": 3479, " százalék": 3480, " dir": 3481, "árt</w>": 3482, "par": 3483, "ier</w>": 3484, "ones</w>": 3485, " miközben</w>": 3486, " p.</w>": 3487, " nevel": 3488, " hitel": 3489, " eljár": 3490, "ow,</w>": 3491, "ising</w>": 3492, " Még</w>": 3493, "ane</w>": 3494, " milliárd</w>": 3495, " pontosan</w>": 3496, "etic</w>": 3497, " scientific</w>": 3498, " kik": 3499, " prov": 3500, "hető": 3501, " funkció": 3502, " alkalommal</w>": 3503, " focus</w>": 3504, " mely": 3505, " affect</w>": 3506, " products</w>": 3507, " elkészít": 3508, " protect</w>": 3509, "ning</w>": 3510, "ött,</w>": 3511, " nature</w>": 3512, "ésére.</w>": 3513, " 11</w>": 3514, " kellene</w>": 3515, " mintegy</w>": 3516, " látogat": 3517, " videa</w>": 3518, " kizárólag</w>": 3519, " szöveg": 3520, " Ebben</w>": 3521, " nyilatkoz": 3522, " integr": 3523, " Sc": 3524, "ually</w>": 3525, " munka</w>": 3526, " hiány": 3527, "ental</w>": 3528, " között.</w>": 3529, "ogat": 3530, " tur": 3531, " build</w>": 3532, " pály": 3533, "ous": 3534, "ication</w>": 3535, "leg</w>": 3536, "essed</w>": 3537, " French</w>": 3538, " lesz,</w>": 3539, " jobb": 3540, " suppl": 3541, " család</w>": 3542, "áv": 3543, "ánt": 3544, " vissz": 3545, " addig</w>": 3546, " tünet": 3547, "agy": 3548, " sokan</w>": 3549, "ozott</w>": 3550, " hasonl": 3551, "beli</w>": 3552, " elt": 3553, " sun": 3554, " szerv": 3555, " viszony": 3556, " art": 3557, " death</w>": 3558, "étől</w>": 3559, "ess.</w>": 3560, " semm": 3561, " •</w>": 3562, " férgek</w>": 3563, " Indian</w>": 3564, " outside</w>": 3565, " időben</w>": 3566, "the</w>": 3567, "ings,</w>": 3568, " writ": 3569, " vág": 3570, "ölt": 3571, " lov": 3572, " Your</w>": 3573, "line</w>": 3574, " Un": 3575, " world.</w>": 3576, " According</w>": 3577, " tehet": 3578, " Science</w>": 3579, " man</w>": 3580, "ances</w>": 3581, " A.</w>": 3582, " spread</w>": 3583, " Ter": 3584, " küzd": 3585, " össz": 3586, " Amennyiben</w>": 3587, " vegy": 3588, " cap": 3589, " sense</w>": 3590, "ozz": 3591, " kiváló</w>": 3592, " II.</w>": 3593, " military</w>": 3594, " traditional</w>": 3595, " 24</w>": 3596, "ton</w>": 3597, "ements</w>": 3598, " szeptember</w>": 3599, " orosz</w>": 3600, " keretében</w>": 3601, " támogat": 3602, " Car": 3603, " ensure</w>": 3604, " nemzeti</w>": 3605, " essential</w>": 3606, " bu": 3607, " tulajdon": 3608, " sol": 3609, " fogy": 3610, " From</w>": 3611, " inside</w>": 3612, " May</w>": 3613, " standard</w>": 3614, " personal</w>": 3615, " francia</w>": 3616, " management</w>": 3617, " 16</w>": 3618, " számára,</w>": 3619, " coun": 3620, " positive</w>": 3621, " Tel": 3622, " kapcsolatban</w>": 3623, "né</w>": 3624, "Th": 3625, " del": 3626, " it,</w>": 3627, " növeked": 3628, " involved</w>": 3629, "öm": 3630, " central</w>": 3631, "ull": 3632, " előre</w>": 3633, " Magyarország": 3634, " határ": 3635, " Mon": 3636, " tit": 3637, "ileg</w>": 3638, " numbers</w>": 3639, " question</w>": 3640, " land": 3641, "th,</w>": 3642, " vissza": 3643, "tam,</w>": 3644, " We": 3645, " real": 3646, " turn</w>": 3647, " ever</w>": 3648, " elnök": 3649, "ország": 3650, "erc": 3651, "állít": 3652, "ark": 3653, "kel</w>": 3654, "ians</w>": 3655, " included</w>": 3656, " pe": 3657, " contact</w>": 3658, " október</w>": 3659, " acc": 3660, " As": 3661, " view</w>": 3662, "ély</w>": 3663, "ock</w>": 3664, "ost</w>": 3665, "be.</w>": 3666, " highly</w>": 3667, " force</w>": 3668, "áját</w>": 3669, "ügy": 3670, " megsz": 3671, " lehetőség</w>": 3672, " többet</w>": 3673, " tor": 3674, "junk</w>": 3675, "aining</w>": 3676, "itive</w>": 3677, " *</w>": 3678, "20</w>": 3679, " damage</w>": 3680, " érintett</w>": 3681, " Other</w>": 3682, "assz": 3683, "eit,</w>": 3684, " six</w>": 3685, " established</w>": 3686, "ate.</w>": 3687, " kind</w>": 3688, " believe</w>": 3689, " try</w>": 3690, " bőv": 3691, " typically</w>": 3692, " sm": 3693, " grow</w>": 3694, "ast</w>": 3695, "olja</w>": 3696, " kérd": 3697, " megbíz": 3698, "ozza</w>": 3699, "est,</w>": 3700, " quite</w>": 3701, " ent": 3702, " methods</w>": 3703, " Ak": 3704, "óság</w>": 3705, " image</w>": 3706, " fasz</w>": 3707, "ES": 3708, "less</w>": 3709, " hagyományos</w>": 3710, " épp</w>": 3711, "ators</w>": 3712, " magyar": 3713, "ides</w>": 3714, " ismert</w>": 3715, " előadás": 3716, " közösségi</w>": 3717, " vállalkoz": 3718, " chemical</w>": 3719, " haszn": 3720, " Ki": 3721, " tartoz": 3722, " continue</w>": 3723, "tart": 3724, "led</w>": 3725, " vill": 3726, "osis</w>": 3727, " directly</w>": 3728, " popular</w>": 3729, " so": 3730, " app": 3731, " ser": 3732, " hossz": 3733, " av": 3734, "ished</w>": 3735, "aliz": 3736, " akinek</w>": 3737, " multiple</w>": 3738, " ‘": 3739, "aus": 3740, "ked": 3741, "ást.</w>": 3742, "elling</w>": 3743, "ential</w>": 3744, "EN": 3745, "ots</w>": 3746, "etes</w>": 3747, " méret": 3748, "ands</w>": 3749, "ver": 3750, " matter</w>": 3751, "ért,</w>": 3752, "ival</w>": 3753, " emb": 3754, "lás": 3755, " head</w>": 3756, " US": 3757, " egész": 3758, " sea</w>": 3759, " munkáj": 3760, " foglal": 3761, " együttműköd": 3762, " vagyunk</w>": 3763, " szavaz": 3764, "vány": 3765, " érz": 3766, " amely": 3767, " held</w>": 3768, "áp": 3769, " compared</w>": 3770, " immun": 3771, "vet": 3772, " magyarul</w>": 3773, "étel</w>": 3774, " contains</w>": 3775, "ending</w>": 3776, " red</w>": 3777, " mal": 3778, " prom": 3779, " obj": 3780, "éből</w>": 3781, " bűn": 3782, " jött</w>": 3783, " bab": 3784, " expl": 3785, " series</w>": 3786, " norm": 3787, "ame</w>": 3788, "ams</w>": 3789, " vél": 3790, " gyors</w>": 3791, "ekről</w>": 3792, " od": 3793, " Val": 3794, "amb": 3795, " Szex</w>": 3796, "ope</w>": 3797, " add</w>": 3798, " eng": 3799, "ey,</w>": 3800, " leading</w>": 3801, " meghatározott</w>": 3802, " erd": 3803, " december</w>": 3804, "itás</w>": 3805, "ents,</w>": 3806, " easily</w>": 3807, " érvény": 3808, "ings.</w>": 3809, " illet": 3810, "ai": 3811, "hetnek</w>": 3812, " tartalm": 3813, " region</w>": 3814, " magas": 3815, " fiatal": 3816, " stor": 3817, "-h": 3818, "ös": 3819, " largest</w>": 3820, "oma</w>": 3821, "arian</w>": 3822, " húz": 3823, " Mag": 3824, " international</w>": 3825, " keret": 3826, " rengeteg</w>": 3827, " 202": 3828, "II.</w>": 3829, "ors.</w>": 3830, " 60</w>": 3831, " additional</w>": 3832, " időpont": 3833, " állami</w>": 3834, " disc": 3835, " ú": 3836, "őr</w>": 3837, " azért,</w>": 3838, " lesz.</w>": 3839, " sokszor</w>": 3840, "úl": 3841, "ict": 3842, "ba.</w>": 3843, " kifej": 3844, " vizsgál": 3845, "way</w>": 3846, " rossz": 3847, " szület": 3848, "aut": 3849, " bármilyen</w>": 3850, " figyelm": 3851, " avoid</w>": 3852, " mental</w>": 3853, " easy</w>": 3854, "ől,</w>": 3855, "ol.</w>": 3856, "ound</w>": 3857, " Ő</w>": 3858, " tényleg</w>": 3859, "ica</w>": 3860, "va.</w>": 3861, " issues</w>": 3862, "aj</w>": 3863, " zavar": 3864, " mean</w>": 3865, "ower</w>": 3866, "olv": 3867, " egyedi</w>": 3868, " (201": 3869, " tarskereso</w>": 3870, " life.</w>": 3871, " jellemz": 3872, " terh": 3873, " response</w>": 3874, "ső</w>": 3875, " addition</w>": 3876, " identify</w>": 3877, " Earth</w>": 3878, " anti": 3879, "oph": 3880, "tatás</w>": 3881, " gyermekek</w>": 3882, " kics": 3883, " egyáltalán</w>": 3884, " parents</w>": 3885, "éj": 3886, "er’s</w>": 3887, " len": 3888, " tapasztalat": 3889, " szerencs": 3890, " sn": 3891, " felh": 3892, " szék": 3893, "ously</w>": 3894, " International</w>": 3895, " German</w>": 3896, "ight,</w>": 3897, " interest</w>": 3898, " dob": 3899, " list</w>": 3900, " meaning</w>": 3901, " sőt</w>": 3902, " április</w>": 3903, " alkalm": 3904, " weight</w>": 3905, " június</w>": 3906, " mass</w>": 3907, " analysis</w>": 3908, " For": 3909, " helyszín": 3910, "emény": 3911, " sens": 3912, " Man": 3913, " migr": 3914, "ine.</w>": 3915, " Ezen</w>": 3916, " system.</w>": 3917, " termékek</w>": 3918, " (M": 3919, " étel": 3920, "out</w>": 3921, " div": 3922, " tap": 3923, "ották</w>": 3924, " lack</w>": 3925, "onic</w>": 3926, " elvég": 3927, "oid</w>": 3928, "tár": 3929, " big</w>": 3930, " reported</w>": 3931, " személy</w>": 3932, " bér": 3933, " top": 3934, " pályáz": 3935, " viz": 3936, " vez": 3937, " Since</w>": 3938, "óm": 3939, "ul.</w>": 3940, "álja</w>": 3941, " tett</w>": 3942, "álni</w>": 3943, " Péter</w>": 3944, " Már</w>": 3945, " condition</w>": 3946, "ase</w>": 3947, " cost</w>": 3948, " Cons": 3949, " vari": 3950, " ehhez</w>": 3951, " plan": 3952, " lim": 3953, "ally,</w>": 3954, "ics.</w>": 3955, " oil</w>": 3956, " Tud": 3957, " súlyos</w>": 3958, " bur": 3959, " movement</w>": 3960, "ome</w>": 3961, " női</w>": 3962, " teljesítmény": 3963, " lehet.</w>": 3964, " leszbikus</w>": 3965, "ék.</w>": 3966, " jogi</w>": 3967, "-l": 3968, " port": 3969, " vett</w>": 3970, " csapat</w>": 3971, " legy": 3972, " call</w>": 3973, " bék": 3974, " looking</w>": 3975, " leginkább</w>": 3976, " hat</w>": 3977, " getting</w>": 3978, " végz": 3979, " share</w>": 3980, " lat": 3981, " teszt": 3982, "err": 3983, " lehetett</w>": 3984, " do": 3985, " mature</w>": 3986, "ards</w>": 3987, " száml": 3988, " köv": 3989, "ids</w>": 3990, " indul": 3991, " utc": 3992, "lin": 3993, " gomb": 3994, "org": 3995, "úra</w>": 3996, " este</w>": 3997, " sex": 3998, "ara</w>": 3999, " motiv": 4000, "iában</w>": 4001, "ítási</w>": 4002, "nap": 4003, " ge": 4004, " ha": 4005, " halál": 4006, " genetic</w>": 4007, " mes": 4008, " She</w>": 4009, " Ut": 4010, " fogja</w>": 4011, " whose</w>": 4012, "ek:</w>": 4013, "ir</w>": 4014, "ánk</w>": 4015, " november</w>": 4016, " flow</w>": 4017, " től": 4018, " közé</w>": 4019, "ein": 4020, " difference</w>": 4021, " gondolkod": 4022, " ötlet": 4023, "I.</w>": 4024, "ain,</w>": 4025, "s)</w>": 4026, "ta.</w>": 4027, "fl": 4028, " dem": 4029, "ened</w>": 4030, " rendelkező</w>": 4031, " mus": 4032, " Bár</w>": 4033, "ére,</w>": 4034, "sága</w>": 4035, " Str": 4036, "ított": 4037, "őket</w>": 4038, "we": 4039, "ended</w>": 4040, "ház</w>": 4041, " származ": 4042, "őség": 4043, " sources</w>": 4044, " fish</w>": 4045, " í": 4046, " években</w>": 4047, " szerinti</w>": 4048, " active</w>": 4049, " extr": 4050, " segít</w>": 4051, " content</w>": 4052, "ency</w>": 4053, " kuty": 4054, " kevés</w>": 4055, " et": 4056, " bele</w>": 4057, "ha</w>": 4058, " gyerekek</w>": 4059, "óf": 4060, "juk.</w>": 4061, "ait,</w>": 4062, "ogy": 4063, " becomes</w>": 4064, "álta</w>": 4065, " típusú</w>": 4066, "There</w>": 4067, " can": 4068, "ities,</w>": 4069, " kereszt": 4070, " hi": 4071, "ől": 4072, "le,</w>": 4073, " seg": 4074, "ekhez</w>": 4075, " könny": 4076, " nearly</w>": 4077, " ann": 4078, "hoz,</w>": 4079, " irod": 4080, " elején</w>": 4081, "ues</w>": 4082, " pin": 4083, " action</w>": 4084, " hatékony": 4085, "ections</w>": 4086, " brought</w>": 4087, " rom": 4088, "id,</w>": 4089, " széles</w>": 4090, " egészségügyi</w>": 4091, "ától</w>": 4092, " Ne</w>": 4093, "ities.</w>": 4094, "un</w>": 4095, " (</w>": 4096, " mov": 4097, " Ind": 4098, " towards</w>": 4099, " megért": 4100, " Because</w>": 4101, "ich</w>": 4102, " önmag": 4103, " ü": 4104, ".:</w>": 4105, " critical</w>": 4106, " mindenk": 4107, " com": 4108, "ások": 4109, " sec": 4110, " long": 4111, " fehér</w>": 4112, " located</w>": 4113, " third</w>": 4114, "ep</w>": 4115, " csomag": 4116, " vall": 4117, " der": 4118, " months</w>": 4119, " appear</w>": 4120, "lt": 4121, " wide</w>": 4122, " described</w>": 4123, "észeti</w>": 4124, " hagyomány": 4125, "kör": 4126, " position</w>": 4127, " teach": 4128, " itself</w>": 4129, " eff": 4130, " szeretn": 4131, " contain</w>": 4132, " üzlet": 4133, " Great</w>": 4134, " beginning</w>": 4135, " lif": 4136, "ekből</w>": 4137, "sor": 4138, " Mil": 4139, "ched</w>": 4140, " Ferenc</w>": 4141, " (S": 4142, "jel": 4143, " 13</w>": 4144, "y:</w>": 4145, " true</w>": 4146, " tudjuk</w>": 4147, " elmond": 4148, "sp": 4149, " theory</w>": 4150, "0-": 4151, " money</w>": 4152, "ling</w>": 4153, " African</w>": 4154, " vált</w>": 4155, " erős": 4156, " popul": 4157, " megm": 4158, "tatás": 4159, "lap": 4160, "olog": 4161, " requires</w>": 4162, " távol": 4163, "cs</w>": 4164, " cre": 4165, " pl.</w>": 4166, "amm": 4167, " 200</w>": 4168, " doing</w>": 4169, " három": 4170, " felvétel": 4171, " imag": 4172, "áz</w>": 4173, "alom": 4174, " egészséges</w>": 4175, " instead</w>": 4176, " száma</w>": 4177, " occurs</w>": 4178, " York</w>": 4179, "ebben</w>": 4180, " und": 4181, " ugyanakkor</w>": 4182, "s;</w>": 4183, " sem": 4184, "ch,</w>": 4185, " víz</w>": 4186, "atory</w>": 4187, "ber": 4188, " 6.</w>": 4189, "As</w>": 4190, " kísér": 4191, "tik</w>": 4192, " plan</w>": 4193, " telep": 4194, "ővel</w>": 4195, " (the</w>": 4196, " color</w>": 4197, " US</w>": 4198, " politik": 4199, "műv": 4200, " létrehoz": 4201, " ground</w>": 4202, " (1)</w>": 4203, "ank</w>": 4204, " forint</w>": 4205, " virág": 4206, " állat": 4207, " Inter": 4208, " commonly</w>": 4209, " elismer": 4210, " sound</w>": 4211, "ment,</w>": 4212, "tor": 4213, "arc": 4214, " unique</w>": 4215, " történt</w>": 4216, " reason</w>": 4217, " star": 4218, " Of</w>": 4219, "ével,</w>": 4220, " begin</w>": 4221, "eed</w>": 4222, " direct</w>": 4223, " kb.</w>": 4224, " started</w>": 4225, "őt": 4226, "olg": 4227, "ól.</w>": 4228, " Milyen</w>": 4229, "ács": 4230, " and,</w>": 4231, " megállap": 4232, "ász</w>": 4233, " nemzet": 4234, " increasing</w>": 4235, "áros</w>": 4236, " severe</w>": 4237, " oszt": 4238, " prof": 4239, " that,</w>": 4240, "fr": 4241, " conv": 4242, "élyes</w>": 4243, " organ": 4244, "ar,</w>": 4245, "val</w>": 4246, " pain</w>": 4247, " text</w>": 4248, " Egyesült</w>": 4249, " kül": 4250, " im": 4251, "0%</w>": 4252, " 192": 4253, " táv": 4254, " hard": 4255, " events</w>": 4256, " phot": 4257, " boldog": 4258, " teh": 4259, " su": 4260, "eit.</w>": 4261, " rej": 4262, "ság,</w>": 4263, " consider</w>": 4264, "ój": 4265, "pont": 4266, " ideas</w>": 4267, " It’s</w>": 4268, " kapcsol": 4269, " inj": 4270, " otthon</w>": 4271, " jelenti,</w>": 4272, "ép</w>": 4273, "to</w>": 4274, " rul": 4275, "zett</w>": 4276, ",\"</w>": 4277, "up</w>": 4278, " History</w>": 4279, "hatunk</w>": 4280, " M.</w>": 4281, " forint": 4282, " tűz": 4283, " ízületi</w>": 4284, " jön</w>": 4285, "óg": 4286, "est.</w>": 4287, " idéz": 4288, " alig</w>": 4289, " short": 4290, " üzleti</w>": 4291, " aw": 4292, " wat": 4293, " hirdet": 4294, "ab</w>": 4295, "n.</w>": 4296, " (C": 4297, "vez": 4298, " autom": 4299, " meleg</w>": 4300, " Ezzel</w>": 4301, " Ir": 4302, " ingyen": 4303, " Ö": 4304, " defin": 4305, "íteni</w>": 4306, " 21": 4307, " Ön": 4308, " beh": 4309, " ugyan</w>": 4310, " volna,</w>": 4311, " érzés": 4312, "ekkel,</w>": 4313, "ode</w>": 4314, " fok": 4315, " (P": 4316, " influence</w>": 4317, " próbál": 4318, " bizonyít": 4319, "urr": 4320, "ions.</w>": 4321, "ice,</w>": 4322, "ment.</w>": 4323, " végrehajt": 4324, " jelenlegi</w>": 4325, " őket.</w>": 4326, "ottan</w>": 4327, "der</w>": 4328, "ést.</w>": 4329, " Úgy</w>": 4330, " tömeg": 4331, " Kor": 4332, " rak": 4333, " keresked": 4334, "ém</w>": 4335, " gyümölcs": 4336, " vi": 4337, " limited</w>": 4338, " feet</w>": 4339, " discovered</w>": 4340, " amelyben</w>": 4341, " kam": 4342, " write</w>": 4343, " behind</w>": 4344, " amelyeket</w>": 4345, " pénzügyi</w>": 4346, " hivatalos</w>": 4347, " többek</w>": 4348, " subject</w>": 4349, "cl": 4350, "ezték</w>": 4351, " teachers</w>": 4352, " megrend": 4353, " hours</w>": 4354, " elő</w>": 4355, "ora</w>": 4356, " Ne": 4357, " xxx</w>": 4358, " tény": 4359, " circ": 4360, "tak,</w>": 4361, " 2.": 4362, "árs": 4363, " szed": 4364, " információ": 4365, " Mert</w>": 4366, "de</w>": 4367, " ...</w>": 4368, " célja</w>": 4369, "aff": 4370, "ron": 4371, "ésére,</w>": 4372, " kiegészít": 4373, " had": 4374, " vérnyomás</w>": 4375, " visz": 4376, " egyéni</w>": 4377, " smaller</w>": 4378, " rég": 4379, "aság": 4380, " creating</w>": 4381, " játék</w>": 4382, " 24": 4383, "f.</w>": 4384, " go": 4385, " mennyire</w>": 4386, "ained</w>": 4387, "um,</w>": 4388, " Even</w>": 4389, " angol</w>": 4390, " elements</w>": 4391, " 186": 4392, " lehetőséget</w>": 4393, "pp": 4394, " daily</w>": 4395, " God</w>": 4396, "ása.</w>": 4397, " öröm": 4398, " használt</w>": 4399, " cser": 4400, " nevez": 4401, " név": 4402, " József</w>": 4403, " therefore</w>": 4404, " run</w>": 4405, "For</w>": 4406, " attention</w>": 4407, " végre</w>": 4408, " Szak": 4409, "sági</w>": 4410, "álás</w>": 4411, "emény</w>": 4412, "ítik</w>": 4413, " speciális</w>": 4414, " went</w>": 4415, " formed</w>": 4416, "vel</w>": 4417, " cent": 4418, " elind": 4419, " remains</w>": 4420, "ice.</w>": 4421, " someone</w>": 4422, " Comp": 4423, "okból</w>": 4424, " Her": 4425, " year.</w>": 4426, " ideje</w>": 4427, " Ge": 4428, " observ": 4429, "igy": 4430, "ward</w>": 4431, " points</w>": 4432, " teaching</w>": 4433, " valamilyen</w>": 4434, " found": 4435, "ents.</w>": 4436, "ról,</w>": 4437, " megb": 4438, " pan": 4439, "séggel</w>": 4440, " you": 4441, " impl": 4442, " reach</w>": 4443, " ice</w>": 4444, " hát</w>": 4445, "ars</w>": 4446, "itation</w>": 4447, " useful</w>": 4448, " gyakor": 4449, " gives</w>": 4450, " March</w>": 4451, "oni</w>": 4452, " tulajdonság": 4453, "ike</w>": 4454, " Institute</w>": 4455, " act</w>": 4456, "űz": 4457, " person": 4458, " helyez": 4459, " serious</w>": 4460, "ement,</w>": 4461, " measure</w>": 4462, " C</w>": 4463, " again</w>": 4464, " nélküli</w>": 4465, "ecting</w>": 4466, " kevésbé</w>": 4467, " emelked": 4468, " vásárl": 4469, " tette</w>": 4470, " rang": 4471, " sajnos</w>": 4472, " art</w>": 4473, "zi</w>": 4474, "th.</w>": 4475, " micro": 4476, " 000</w>": 4477, " telefon": 4478, " Bel": 4479, " után": 4480, " eg": 4481, " arr": 4482, "ad.</w>": 4483, " path": 4484, " seems</w>": 4485, " des": 4486, "ember</w>": 4487, " figyelembe</w>": 4488, "ke</w>": 4489, "etlen": 4490, " it's</w>": 4491, " tartott</w>": 4492, "üt": 4493, " tett": 4494, "30</w>": 4495, " örök": 4496, "ins": 4497, "emes</w>": 4498, " után,</w>": 4499, " qual": 4500, " tree</w>": 4501, " perc</w>": 4502, " responsible</w>": 4503, "mények</w>": 4504, "ítése</w>": 4505, "When</w>": 4506, " music</w>": 4507, " negative</w>": 4508, " quickly</w>": 4509, "ula</w>": 4510, "zó</w>": 4511, " Ér": 4512, "ával.</w>": 4513, "ested</w>": 4514, "tikus</w>": 4515, " step</w>": 4516, "üket</w>": 4517, " típus": 4518, "that": 4519, " ideg": 4520, " erő": 4521, " bring</w>": 4522, " lakás": 4523, " Each</w>": 4524, "tuk</w>": 4525, " mas": 4526, " tökéletes</w>": 4527, "and,</w>": 4528, "as.</w>": 4529, " cultural</w>": 4530, " néger</w>": 4531, "áig</w>": 4532, " élmény": 4533, " mint": 4534, "kat</w>": 4535, " harm": 4536, " ing": 4537, " ebből</w>": 4538, " külföldi</w>": 4539, "nap</w>": 4540, " Van</w>": 4541, "atives</w>": 4542, " poor</w>": 4543, " király": 4544, " ey": 4545, " Alap": 4546, " More</w>": 4547, " eltávol": 4548, "ests</w>": 4549, " trad": 4550, "ester</w>": 4551, "ately</w>": 4552, "ives</w>": 4553, " arány": 4554, "öt</w>": 4555, " előző</w>": 4556, " trees</w>": 4557, " service</w>": 4558, " relatively</w>": 4559, " benefits</w>": 4560, " szerz": 4561, " 190": 4562, " van": 4563, " augusztus</w>": 4564, " religious</w>": 4565, " supply</w>": 4566, "ódó</w>": 4567, "óp": 4568, "elési</w>": 4569, "ezz": 4570, "ció</w>": 4571, "anyag": 4572, " végez": 4573, " maguk": 4574, "oun": 4575, "bb</w>": 4576, " maximum</w>": 4577, " serv": 4578, " mobil": 4579, "hely</w>": 4580, " sleep</w>": 4581, " megy": 4582, " ráadásul</w>": 4583, " szerződ": 4584, " bacteria</w>": 4585, "ésében</w>": 4586, "ility</w>": 4587, " megszer": 4588, " mennyiség": 4589, " kollég": 4590, " július</w>": 4591, " build": 4592, " miután</w>": 4593, " fontos,</w>": 4594, " száll": 4595, " bőr</w>": 4596, "vány</w>": 4597, " február</w>": 4598, " Cre": 4599, " Kar": 4600, " idei</w>": 4601, " medic": 4602, " pszich": 4603, " beteg</w>": 4604, "ésű</w>": 4605, "le.</w>": 4606, " sign": 4607, " conc": 4608, " humans</w>": 4609, " tartozó</w>": 4610, " kezdőd": 4611, " sim": 4612, "eknél</w>": 4613, "ei,</w>": 4614, " vizsg": 4615, " kialakítás": 4616, " added</w>": 4617, " Hat": 4618, "own</w>": 4619, "óbb</w>": 4620, " business</w>": 4621, " Mit</w>": 4622, "mány": 4623, " al.</w>": 4624, "ary,</w>": 4625, " face</w>": 4626, " kiállítás": 4627, " szerkeszt": 4628, " kialak": 4629, " forrás": 4630, " develop": 4631, " modell": 4632, " deep</w>": 4633, " energi": 4634, "ciós</w>": 4635, "ely,</w>": 4636, "ral</w>": 4637, " kisz": 4638, "atban</w>": 4639, "fél": 4640, " elérhető": 4641, "ises</w>": 4642, " rest</w>": 4643, " today</w>": 4644, " fehér": 4645, " amator</w>": 4646, " pozitív</w>": 4647, " agy": 4648, " eye</w>": 4649, "iti": 4650, " néha</w>": 4651, "osság</w>": 4652, " kiválaszt": 4653, " tej": 4654, "ange</w>": 4655, " immune</w>": 4656, " extra</w>": 4657, "ium": 4658, "oring</w>": 4659, "éd</w>": 4660, " mértékben</w>": 4661, " végzett</w>": 4662, " magyaráz": 4663, " West</w>": 4664, " területén</w>": 4665, " intézked": 4666, " föl": 4667, " Im": 4668, " kids</w>": 4669, "ement.</w>": 4670, "li": 4671, " Arch": 4672, " Uni": 4673, "eal": 4674, "ology,</w>": 4675, " stílus": 4676, " DNA</w>": 4677, " answer</w>": 4678, " June</w>": 4679, " Ber": 4680, " hegy": 4681, " training</w>": 4682, " issue</w>": 4683, " images</w>": 4684, " tell</w>": 4685, "ends</w>": 4686, " fac": 4687, " named</w>": 4688, "sz,</w>": 4689, " biztos</w>": 4690, " kés": 4691, "ept": 4692, "ób": 4693, " Department</w>": 4694, " képek</w>": 4695, "onn": 4696, " placed</w>": 4697, " eas": 4698, " water.</w>": 4699, " far": 4700, " Ol": 4701, "ant,</w>": 4702, " foods</w>": 4703, " hajt": 4704, "ti</w>": 4705, " honlap": 4706, " alacsony</w>": 4707, " kett": 4708, " return</w>": 4709, "red": 4710, " között,</w>": 4711, " elérhető</w>": 4712, "almas</w>": 4713, "equ": 4714, " együtt": 4715, " Google</w>": 4716, " főleg</w>": 4717, " mak": 4718, " features</w>": 4719, " surv": 4720, " activ": 4721, " rad": 4722, " America</w>": 4723, " received</w>": 4724, " tem": 4725, " Rev": 4726, "ád</w>": 4727, "ült,</w>": 4728, " tárgyal": 4729, "ült": 4730, " senki</w>": 4731, " soon</w>": 4732, " enc": 4733, "het.</w>": 4734, " affected</w>": 4735, " lost</w>": 4736, " Ap": 4737, " School</w>": 4738, " perm": 4739, " thing</w>": 4740, "uz": 4741, "ismer": 4742, " Mat": 4743, "ejt": 4744, " horm": 4745, " rá,</w>": 4746, " mor": 4747, " July</w>": 4748, "reat": 4749, " utal": 4750, " supp": 4751, " biztonsági</w>": 4752, " hatékony</w>": 4753, " Re": 4754, " C.</w>": 4755, "-p": 4756, "ami</w>": 4757, " dist": 4758, " love</w>": 4759, " protein</w>": 4760, " air": 4761, " esély": 4762, " fact,</w>": 4763, " liv": 4764, " 22": 4765, " (N": 4766, "almaz": 4767, " besz": 4768, " elk": 4769, "ew</w>": 4770, "ulate</w>": 4771, " abban,</w>": 4772, "ve.</w>": 4773, "jára</w>": 4774, " Pol": 4775, "rog": 4776, " stb.</w>": 4777, " Budapest,</w>": 4778, " cal": 4779, "kr": 4780, " mire</w>": 4781, " schools</w>": 4782, " részben</w>": 4783, " page</w>": 4784, " appropriate</w>": 4785, " Their</w>": 4786, " kulturális</w>": 4787, " elkerül": 4788, "elj": 4789, " adó": 4790, " Is</w>": 4791, " dug": 4792, " fizikai</w>": 4793, "elése</w>": 4794, " bíz": 4795, " akit</w>": 4796, " Gen": 4797, " followed</w>": 4798, "lő</w>": 4799, "tató</w>": 4800, " anim": 4801, " őt</w>": 4802, " Do</w>": 4803, "atl": 4804, "ury</w>": 4805, " (or</w>": 4806, "aph": 4807, " sent</w>": 4808, "épít": 4809, " ground": 4810, " (199": 4811, " öt": 4812, " hold</w>": 4813, " leh": 4814, " elektronikus</w>": 4815, " Ker": 4816, "iving</w>": 4817, " native</w>": 4818, " No</w>": 4819, "ták,</w>": 4820, " Chinese</w>": 4821, " össze": 4822, "pec": 4823, " kon": 4824, " részét</w>": 4825, " importance</w>": 4826, " eat</w>": 4827, " Our</w>": 4828, " kev": 4829, "ür": 4830, " (2": 4831, "ition,</w>": 4832, " pract": 4833, "uh": 4834, " April</w>": 4835, " allowed</w>": 4836, " nov": 4837, "őbb</w>": 4838, " Per": 4839, " prev": 4840, " erről</w>": 4841, " via</w>": 4842, " azzal,</w>": 4843, " adv": 4844, "élt": 4845, " száj": 4846, " panasz": 4847, " titk": 4848, "ense</w>": 4849, " lik": 4850, "ices</w>": 4851, "nök": 4852, " körül</w>": 4853, " econom": 4854, " culture</w>": 4855, " Retrieved</w>": 4856, " poll": 4857, " follow</w>": 4858, " forces</w>": 4859, " kat": 4860, " poly": 4861, "lát": 4862, " képviselő": 4863, "őn</w>": 4864, "ze</w>": 4865, "ó:</w>": 4866, "isc": 4867, "ába,</w>": 4868, "uring</w>": 4869, "ox</w>": 4870, "ented</w>": 4871, " relationship</w>": 4872, "ions,</w>": 4873, " szerepet</w>": 4874, " services</w>": 4875, "unc": 4876, " Cent": 4877, " red": 4878, " üz": 4879, "ódik</w>": 4880, " lét": 4881, " oldalon</w>": 4882, "ái</w>": 4883, " ismeret": 4884, ",5</w>": 4885, "-r": 4886, " Trans": 4887, " seb": 4888, " minős": 4889, " biztosan</w>": 4890, " King</w>": 4891, " számú</w>": 4892, "kö": 4893, " körül": 4894, "ition": 4895, " poss": 4896, " unc": 4897, " toward</w>": 4898, " speci": 4899, "ács</w>": 4900, " feln": 4901, " előír": 4902, " valószínűleg</w>": 4903, " mechan": 4904, "ult.</w>": 4905, " final</w>": 4906, " Rend": 4907, " “The</w>": 4908, "ozás</w>": 4909, " látható</w>": 4910, "ból,</w>": 4911, " közvetlenül</w>": 4912, " Wh": 4913, " felhív": 4914, " pi": 4915, " ének": 4916, " érzék": 4917, " ant": 4918, " under": 4919, " tools</w>": 4920, "szín": 4921, " hand</w>": 4922, " tudunk</w>": 4923, "hető,</w>": 4924, "i:</w>": 4925, "ves</w>": 4926, " speed</w>": 4927, " address</w>": 4928, " védelm": 4929, " don": 4930, "0s</w>": 4931, " folyamatos</w>": 4932, "oldal": 4933, " account</w>": 4934, " kevesebb</w>": 4935, "ely.</w>": 4936, " super": 4937, " 17</w>": 4938, "ky</w>": 4939, "ait.</w>": 4940, " alv": 4941, " kutat": 4942, " fájdalom</w>": 4943, " India</w>": 4944, "ülő</w>": 4945, "aging</w>": 4946, " programs</w>": 4947, "ining</w>": 4948, " sérül": 4949, " previous</w>": 4950, " süt": 4951, " fre": 4952, " Center</w>": 4953, " S.</w>": 4954, " virus</w>": 4955, " Elő": 4956, " aminek</w>": 4957, "iction</w>": 4958, " vas": 4959, "tek,</w>": 4960, "able.</w>": 4961, "áns</w>": 4962, "):</w>": 4963, " rac": 4964, " believed</w>": 4965, " December</w>": 4966, " ep": 4967, "alak": 4968, " nevű</w>": 4969, "ületi</w>": 4970, "őre</w>": 4971, " pontos</w>": 4972, "emben</w>": 4973, "Egy": 4974, " Black</w>": 4975, " non-": 4976, " Ist": 4977, " annál</w>": 4978, " munkatárs": 4979, "álló</w>": 4980, " Stat": 4981, "oln": 4982, " tin": 4983, " őket,</w>": 4984, " providing</w>": 4985, " Roman</w>": 4986, "ips</w>": 4987, " B</w>": 4988, " continued</w>": 4989, " All": 4990, " tájékoztat": 4991, " átalak": 4992, "ását.</w>": 4993, "ények</w>": 4994, " process": 4995, " product</w>": 4996, "atikus</w>": 4997, " miles</w>": 4998, "okkal,</w>": 4999, "jön</w>": 5000, " object</w>": 5001, " compl": 5002, "ását,</w>": 5003, " halad": 5004, "íts": 5005, " Rep": 5006, "ita</w>": 5007, " objects</w>": 5008, "ater</w>": 5009, " kil": 5010, "ár,</w>": 5011, " 500</w>": 5012, " publ": 5013, "enként</w>": 5014, " pillanat": 5015, "ül.</w>": 5016, " Another</w>": 5017, " tév": 5018, "ezése</w>": 5019, "ession</w>": 5020, " közvetlen</w>": 5021, " orvosi</w>": 5022, " concept</w>": 5023, " melyik</w>": 5024, " növény": 5025, " November</w>": 5026, " tám": 5027, " (F": 5028, " partner": 5029, "üld": 5030, " General</w>": 5031, " egymás</w>": 5032, " beszélget": 5033, " hí": 5034, "ág</w>": 5035, " kihív": 5036, " kif": 5037, " felismer": 5038, "hetetlen</w>": 5039, " 189": 5040, " infection</w>": 5041, " forr": 5042, " behavior</w>": 5043, " green</w>": 5044, " kemény</w>": 5045, " offer</w>": 5046, " ask</w>": 5047, " fire</w>": 5048, " szociális</w>": 5049, " fall</w>": 5050, " ris": 5051, "AS": 5052, "véd": 5053, " examples</w>": 5054, " soci": 5055, " comput": 5056, " regisztr": 5057, " vörös</w>": 5058, "éhez</w>": 5059, " 1,": 5060, " gyakorlat": 5061, " San</w>": 5062, "egr": 5063, " szinten</w>": 5064, " kapcsolódó</w>": 5065, "itions</w>": 5066, " könnyű</w>": 5067, "OR": 5068, " tetsz": 5069, " cut</w>": 5070, " paraziták</w>": 5071, " waste</w>": 5072, "ax</w>": 5073, " new": 5074, " cor": 5075, " hónap</w>": 5076, "10</w>": 5077, "water</w>": 5078, " Már": 5079, " Use</w>": 5080, "SZ</w>": 5081, " remain</w>": 5082, " Ur": 5083, "ond</w>": 5084, " részére</w>": 5085, " applied</w>": 5086, " section</w>": 5087, " bevezet": 5088, " ne": 5089, "ére.</w>": 5090, " mindkét</w>": 5091, "ját": 5092, "aként</w>": 5093, " rot": 5094, " River</w>": 5095, " James</w>": 5096, "Al": 5097, " etc.</w>": 5098, "filmek</w>": 5099, "que</w>": 5100, " presence</w>": 5101, " typ": 5102, " Gábor</w>": 5103, " comb": 5104, " Általános</w>": 5105, "oms</w>": 5106, " mad": 5107, "ories</w>": 5108, "itis</w>": 5109, " vizsgálat": 5110, "szerűen</w>": 5111, "talan</w>": 5112, " megk": 5113, " fiz": 5114, " corr": 5115, " showed</w>": 5116, "áris</w>": 5117, "aink</w>": 5118, " fact": 5119, " diss": 5120, " eljárás</w>": 5121, " meet</w>": 5122, " lin": 5123, " private</w>": 5124, " Comm": 5125, " Journal</w>": 5126, "-i</w>": 5127, " lives</w>": 5128, " sikeres</w>": 5129, " network</w>": 5130, " kiad": 5131, " mások</w>": 5132, " currently</w>": 5133, "ella</w>": 5134, " histor": 5135, " szállít": 5136, "nő</w>": 5137, " Americ": 5138, " light": 5139, " cuk": 5140, "ály</w>": 5141, "néz": 5142, " Jézus</w>": 5143, " szó,</w>": 5144, " recept": 5145, "AN": 5146, " leaves</w>": 5147, " szor": 5148, " values</w>": 5149, " bek": 5150, "érték": 5151, "yr": 5152, " pack": 5153, "ain.</w>": 5154, " stre": 5155, " well": 5156, "ultak</w>": 5157, " seem</w>": 5158, " Országos</w>": 5159, " text": 5160, " vitamin</w>": 5161, "ition.</w>": 5162, "hat.</w>": 5163, " baj": 5164, " ó": 5165, "ulated</w>": 5166, " stress</w>": 5167, "-től</w>": 5168, " kölcsön": 5169, " kal": 5170, " them,</w>": 5171, " tudom</w>": 5172, " cour": 5173, " differences</w>": 5174, " azóta</w>": 5175, "20": 5176, " maintain</w>": 5177, "uff": 5178, "ison</w>": 5179, " initi": 5180, " gyógyszer</w>": 5181, " felfed": 5182, "öt": 5183, " Q": 5184, " refl": 5185, " clim": 5186, " therap": 5187, " regular</w>": 5188, " William</w>": 5189, "kező</w>": 5190, "utes</w>": 5191, " átv": 5192, " valódi</w>": 5193, "ivel</w>": 5194, " módosítás": 5195, " year,</w>": 5196, "ög": 5197, " 7.</w>": 5198, "row</w>": 5199, " viselked": 5200, " rá": 5201, " csal": 5202, "ír</w>": 5203, " visszatér": 5204, "ree</w>": 5205, " gazdaság": 5206, " rise</w>": 5207, " Acc": 5208, "osok</w>": 5209, " iskola</w>": 5210, "OS</w>": 5211, " értékesít": 5212, " alkalmas</w>": 5213, " becs": 5214, " tudnak</w>": 5215, "ők,</w>": 5216, " optim": 5217, " amennyiben</w>": 5218, "a-": 5219, " inform": 5220, "ég</w>": 5221, " Mint</w>": 5222, " tax": 5223, " ajándék": 5224, " ÉS</w>": 5225, "országban</w>": 5226, "ism,</w>": 5227, " pul": 5228, " completely</w>": 5229, " tudományos</w>": 5230, " day.</w>": 5231, " design": 5232, "ajt": 5233, " konyh": 5234, "ement": 5235, " m</w>": 5236, " (I": 5237, " sug": 5238, " cit": 5239, "ide": 5240, " low": 5241, "enk": 5242, " exposure</w>": 5243, " front</w>": 5244, "ident</w>": 5245, "roph": 5246, " friss</w>": 5247, " birtok": 5248, " majority</w>": 5249, "of</w>": 5250, "br": 5251, "ja:</w>": 5252, " intr": 5253, "acks</w>": 5254, " lines</w>": 5255, " hasznos</w>": 5256, " tíz</w>": 5257, " link": 5258, " látsz": 5259, " First</w>": 5260, " middle</w>": 5261, "élet": 5262, " szexfilmek</w>": 5263, " mot": 5264, " kedvez": 5265, " gyógyszerek</w>": 5266, " tartó</w>": 5267, " úton</w>": 5268, " megjelent</w>": 5269, " miatt.</w>": 5270, "tikai</w>": 5271, " digital</w>": 5272, " szent": 5273, " appears</w>": 5274, "aw</w>": 5275, " eltér": 5276, "je,</w>": 5277, " Students</w>": 5278, " disease.</w>": 5279, " tavaly</w>": 5280, " ang": 5281, "erb": 5282, " historical</w>": 5283, "vény": 5284, "yp": 5285, " múl": 5286, " lehetséges</w>": 5287, "ját,</w>": 5288, " well.</w>": 5289, " magasabb</w>": 5290, "bb,</w>": 5291, " identified</w>": 5292, " képest</w>": 5293, " manag": 5294, " kurvák</w>": 5295, " km": 5296, " cm</w>": 5297, "tern": 5298, "árd": 5299, "abban</w>": 5300, "abb,</w>": 5301, "tud": 5302, "ough</w>": 5303, " illustr": 5304, " amivel</w>": 5305, " January</w>": 5306, "íl": 5307, "ésen</w>": 5308, " technik": 5309, "ans,</w>": 5310, "OL": 5311, " települ": 5312, " receive</w>": 5313, " expected</w>": 5314, " eventually</w>": 5315, " közleked": 5316, " növ": 5317, " sét": 5318, " safety</w>": 5319, " media</w>": 5320, "en:</w>": 5321, " Why</w>": 5322, " De": 5323, " addition,</w>": 5324, " Once</w>": 5325, " check</w>": 5326, " psych": 5327, "ről,</w>": 5328, " safe</w>": 5329, "ision</w>": 5330, " kisebb": 5331, " September</w>": 5332, " stop</w>": 5333, "add": 5334, " anal</w>": 5335, "otic</w>": 5336, " maradt</w>": 5337, "tár</w>": 5338, " követő</w>": 5339, " gave</w>": 5340, " simpl": 5341, " water,</w>": 5342, "ff": 5343, " Miért</w>": 5344, "action</w>": 5345, "urg": 5346, " Coun": 5347, " Pers": 5348, " következmény": 5349, " weboldal": 5350, "tött</w>": 5351, "éves</w>": 5352, "eys</w>": 5353, " szexi</w>": 5354, " ide</w>": 5355, "for": 5356, " diet</w>": 5357, " hav": 5358, "ified</w>": 5359, " megkezd": 5360, " Here</w>": 5361, "ension</w>": 5362, " beyond</w>": 5363, " egyben</w>": 5364, " leveg": 5365, "ory.</w>": 5366, " saw</w>": 5367, "ossz": 5368, " back": 5369, " dry</w>": 5370, " reduced</w>": 5371, " gondolat": 5372, " the": 5373, " aktív</w>": 5374, " Europe</w>": 5375, "use</w>": 5376, " Americans</w>": 5377, " gyer": 5378, " don't</w>": 5379, " born</w>": 5380, " sors": 5381, " people.</w>": 5382, " moving</w>": 5383, " alapvető</w>": 5384, " emp": 5385, " :)</w>": 5386, " federal</w>": 5387, " David</w>": 5388, " (A": 5389, " való": 5390, " erej": 5391, " szexvideok</w>": 5392, " házi</w>": 5393, "ned</w>": 5394, " jelleg": 5395, "jegy": 5396, "gy</w>": 5397, " gam": 5398, " shar": 5399, " \"The</w>": 5400, " approximately</w>": 5401, " érdekes</w>": 5402, " megváltoz": 5403, "usi</w>": 5404, "owing</w>": 5405, " doctor</w>": 5406, " gyors": 5407, "ide,</w>": 5408, " flu": 5409, " módosít": 5410, "ow.</w>": 5411, "öd": 5412, " Tan": 5413, " proj": 5414, "uk.</w>": 5415, "lu": 5416, "ns</w>": 5417, " memory</w>": 5418, " Har": 5419, " kifejezetten</w>": 5420, " jövő</w>": 5421, " proc": 5422, " tests</w>": 5423, "olta</w>": 5424, " Jewish</w>": 5425, " kísérlet": 5426, " extremely</w>": 5427, "y's</w>": 5428, " northern</w>": 5429, "eal</w>": 5430, " Kr": 5431, " század</w>": 5432, " többször</w>": 5433, " gyeng": 5434, "meg": 5435, " ekkor</w>": 5436, " govern": 5437, "ital</w>": 5438, "one,</w>": 5439, " causing</w>": 5440, " 23": 5441, "ated.</w>": 5442, " Aztán</w>": 5443, " protection</w>": 5444, " működő</w>": 5445, " lead": 5446, " időt</w>": 5447, " gondoskod": 5448, " diseases</w>": 5449, "akes</w>": 5450, " October</w>": 5451, " carried</w>": 5452, "d.</w>": 5453, "thető</w>": 5454, " projekt</w>": 5455, " equal</w>": 5456, " society</w>": 5457, " $": 5458, " veh": 5459, "encia</w>": 5460, "itted</w>": 5461, " született</w>": 5462, " kih": 5463, " vannak,</w>": 5464, " összesen</w>": 5465, "szint": 5466, "-ig</w>": 5467, " szívesen</w>": 5468, " járó</w>": 5469, "roc": 5470, " uniós</w>": 5471, " feleség": 5472, " policy</w>": 5473, "ography</w>": 5474, "iós</w>": 5475, " amire</w>": 5476, "ump": 5477, " egyszerre</w>": 5478, " szexuális</w>": 5479, " Con": 5480, " hozzáfér": 5481, "ál,</w>": 5482, " Gal": 5483, " center</w>": 5484, " ért</w>": 5485, " szab": 5486, "any</w>": 5487, " gar": 5488, "y’s</w>": 5489, "ign</w>": 5490, " places</w>": 5491, " powerful</w>": 5492, " arm": 5493, "ody</w>": 5494, " országos</w>": 5495, " orvos</w>": 5496, " allerg": 5497, " separate</w>": 5498, " §</w>": 5499, " female</w>": 5500, " kr": 5501, " defined</w>": 5502, " Kn": 5503, " explain</w>": 5504, "szor</w>": 5505, " font": 5506, "0,000</w>": 5507, " valóság": 5508, " Coll": 5509, " munka": 5510, " akadály": 5511, " organiz": 5512, " distance</w>": 5513, "ym": 5514, "ows</w>": 5515, "eni": 5516, " ideig</w>": 5517, " központ": 5518, " tinik</w>": 5519, " Ro": 5520, "enni</w>": 5521, " megyei</w>": 5522, " pot": 5523, "észet</w>": 5524, " processes</w>": 5525, " állandó</w>": 5526, " Western</w>": 5527, " befej": 5528, "ound": 5529, " …</w>": 5530, "tor</w>": 5531, " budapesti</w>": 5532, " jó": 5533, " thousands</w>": 5534, " Akkor</w>": 5535, " sem,</w>": 5536, "ood</w>": 5537, " signs</w>": 5538, "s?</w>": 5539, " sem.</w>": 5540, " August</w>": 5541, " kivitel": 5542, " increases</w>": 5543, " southern</w>": 5544, " (2)</w>": 5545, "We</w>": 5546, "ecs": 5547, "osít": 5548, "oda</w>": 5549, " let</w>": 5550, " jöv": 5551, "ezni,</w>": 5552, " felelős</w>": 5553, " rendelkezés": 5554, "alized</w>": 5555, " law": 5556, " con": 5557, " magunk": 5558, "es)</w>": 5559, " héten</w>": 5560, " szerződés</w>": 5561, " népszerű": 5562, " proper</w>": 5563, " overall</w>": 5564, "ege</w>": 5565, "atás": 5566, " dr.</w>": 5567, "izing</w>": 5568, " books</w>": 5569, "tered</w>": 5570, " központi</w>": 5571, "alk": 5572, "ales</w>": 5573, "tak.</w>": 5574, " 2013.</w>": 5575, "0-es</w>": 5576, " (pl.</w>": 5577, " construction</w>": 5578, "ították</w>": 5579, " deb": 5580, " les": 5581, " President</w>": 5582, " kurva</w>": 5583, " x": 5584, " massz": 5585, "ákkal</w>": 5586, " tér</w>": 5587, " magyarországi</w>": 5588, " kockáz": 5589, " dolog</w>": 5590, "ently,</w>": 5591, " utas": 5592, " szolgáltatás</w>": 5593, "edik</w>": 5594, "er's</w>": 5595, " közösség": 5596, " patient</w>": 5597, " New": 5598, " body.</w>": 5599, " referred</w>": 5600, " vagyok,</w>": 5601, " stabil": 5602, " Új": 5603, " base</w>": 5604, " Mad": 5605, " technológi": 5606, "men": 5607, " magán": 5608, " 2015.</w>": 5609, " but": 5610, " szép": 5611, "hoz": 5612, "oros</w>": 5613, "elmi</w>": 5614, " oka</w>": 5615, "A,</w>": 5616, "könyv": 5617, " kever": 5618, " kategóri": 5619, " At": 5620, " Porno</w>": 5621, " shape</w>": 5622, "e!</w>": 5623, " bro": 5624, " utca</w>": 5625, " hatása</w>": 5626, " annak,</w>": 5627, " zsír": 5628, " (n": 5629, " 8.</w>": 5630, " specif": 5631, " cikk</w>": 5632, "mentes</w>": 5633, " fuel</w>": 5634, " ágy": 5635, " performance</w>": 5636, " eating</w>": 5637, " Mal": 5638, " got</w>": 5639, " digitális</w>": 5640, " kedves</w>": 5641, " feldolgoz": 5642, "usban</w>": 5643, " körülmények</w>": 5644, " meleg": 5645, " könyv</w>": 5646, " older</w>": 5647, " Aut": 5648, " máj": 5649, " house</w>": 5650, " industry</w>": 5651, " nation": 5652, " szopás</w>": 5653, " respons": 5654, " thinking</w>": 5655, " 1-": 5656, "ean": 5657, " Sándor</w>": 5658, " kötelező</w>": 5659, " cop": 5660, " trying</w>": 5661, " People</w>": 5662, "ezi</w>": 5663, "ishing</w>": 5664, " teremt": 5665, " IS": 5666, " férfiak</w>": 5667, "ásában</w>": 5668, " choose</w>": 5669, " 188": 5670, " rendszeresen</w>": 5671, " Mont": 5672, " financial</w>": 5673, " hozzájár": 5674, " Sl": 5675, " radi": 5676, " observed</w>": 5677, "janak</w>": 5678, " proper": 5679, " tend</w>": 5680, "ódott</w>": 5681, " semmilyen</w>": 5682, "ítják</w>": 5683, " view": 5684, " fir": 5685, " akar</w>": 5686, " Col": 5687, " lem": 5688, "te,</w>": 5689, " St.</w>": 5690, " Bo": 5691, " hatással</w>": 5692, "ektől</w>": 5693, " zöld": 5694, " )</w>": 5695, " kutatás": 5696, "ist,</w>": 5697, " cell": 5698, " kötel": 5699, " jo": 5700, " készülék": 5701, "onal</w>": 5702, " hál": 5703, "ÁR": 5704, " mid": 5705, " fénykép": 5706, "esting</w>": 5707, "tt</w>": 5708, " helyzet</w>": 5709, " resulting</w>": 5710, "och": 5711, " szeretne</w>": 5712, " right": 5713, " dél": 5714, " company</w>": 5715, " annyi</w>": 5716, " am</w>": 5717, " length</w>": 5718, " kocs": 5719, " told</w>": 5720, " közep": 5721, " rates</w>": 5722, " efforts</w>": 5723, "vezet": 5724, "-based</w>": 5725, "AL": 5726, " died</w>": 5727, "állítás": 5728, " minim": 5729, " dal": 5730, " műsor": 5731, "andó</w>": 5732, "king</w>": 5733, " tudat": 5734, " rajz": 5735, " tárol": 5736, " használata</w>": 5737, "How</w>": 5738, " goes</w>": 5739, " cover</w>": 5740, " vásár": 5741, " amatör</w>": 5742, "alist</w>": 5743, " sel": 5744, " Inf": 5745, "ukat</w>": 5746, " programm": 5747, "ológ": 5748, "To</w>": 5749, "esül": 5750, " különféle</w>": 5751, "izmus</w>": 5752, " szemb": 5753, " lassan</w>": 5754, " öreg</w>": 5755, " Act</w>": 5756, " szerepl": 5757, " cold</w>": 5758, " fully</w>": 5759, "ord</w>": 5760, "ősz": 5761, "000</w>": 5762, " year": 5763, "esz</w>": 5764, " susp": 5765, "anyag</w>": 5766, "lott</w>": 5767, " menny": 5768, "Ch": 5769, "ester": 5770, "ole</w>": 5771, " II</w>": 5772, "pont</w>": 5773, " south": 5774, " komp": 5775, " ily": 5776, "tatott</w>": 5777, " (s": 5778, " Egyetem</w>": 5779, " japán</w>": 5780, "ább</w>": 5781, " communities</w>": 5782, " nyári</w>": 5783, "iség": 5784, "C.</w>": 5785, " Te</w>": 5786, " vid": 5787, " utána</w>": 5788, " szándék": 5789, " dam": 5790, " jár</w>": 5791, "hetjük</w>": 5792, " egység": 5793, " jóval</w>": 5794, " market</w>": 5795, " változat": 5796, "ám,</w>": 5797, " Sw": 5798, " clos": 5799, " Greek</w>": 5800, " opportunity</w>": 5801, " ec": 5802, " kezdet": 5803, " estimated</w>": 5804, "tal": 5805, " system,</w>": 5806, " innov": 5807, "ect,</w>": 5808, " goal</w>": 5809, "air</w>": 5810, " north": 5811, " megnéz": 5812, "ort,</w>": 5813, " 184": 5814, " link</w>": 5815, " Európa</w>": 5816, " imm": 5817, "eg,</w>": 5818, "film</w>": 5819, " Sok</w>": 5820, "ába.</w>": 5821, " táj": 5822, "esnek</w>": 5823, "o-": 5824, " képesek</w>": 5825, " csoport</w>": 5826, " resp": 5827, " érdekében,</w>": 5828, " megszűn": 5829, " down": 5830, " párt": 5831, " techniques</w>": 5832, " ösztön": 5833, " megf": 5834, " tűn": 5835, " helyet</w>": 5836, "eleti</w>": 5837, " egyaránt</w>": 5838, "ature</w>": 5839, " code</w>": 5840, " billion</w>": 5841, " ép": 5842, " utáni</w>": 5843, "emp": 5844, " hozzá": 5845, " B.</w>": 5846, " Több</w>": 5847, " négy": 5848, "ties</w>": 5849, " partn": 5850, "iség</w>": 5851, "ulása</w>": 5852, " megkap": 5853, " friend": 5854, " existing</w>": 5855, " igazság": 5856, "áro": 5857, " tenni</w>": 5858, " felügy": 5859, " dar": 5860, " numb": 5861, " dísz": 5862, "enny": 5863, " hangulat": 5864, "hatatlan</w>": 5865, " trade</w>": 5866, " has": 5867, "inary</w>": 5868, " motor</w>": 5869, "átor</w>": 5870, " nehéz": 5871, "enek,</w>": 5872, " author</w>": 5873, "szerű": 5874, " introduced</w>": 5875, " tartózkod": 5876, " Te": 5877, " Sci": 5878, " Kl": 5879, " lenn": 5880, "ild": 5881, " Bas": 5882, " mill": 5883, " plac": 5884, " birds</w>": 5885, "aton</w>": 5886, " Fin": 5887, " minimum</w>": 5888, " u.</w>": 5889, " ajt": 5890, "oted</w>": 5891, " tesz</w>": 5892, " Megyei</w>": 5893, " teacher</w>": 5894, " ord": 5895, " legújabb</w>": 5896, "A.</w>": 5897, "ori": 5898, " cod": 5899, " communication</w>": 5900, "iás</w>": 5901, " 300</w>": 5902, " record</w>": 5903, "ök,</w>": 5904, "ify</w>": 5905, " sites</w>": 5906, "enek.</w>": 5907, "emm": 5908, "ti,</w>": 5909, " (b": 5910, "ism.</w>": 5911, " R.</w>": 5912, "ítés": 5913, "ítette</w>": 5914, " tartalmaz": 5915, "assa</w>": 5916, " említett</w>": 5917, " azonosít": 5918, " event</w>": 5919, "ya</w>": 5920, "ric</w>": 5921, " Ig": 5922, " nagyi</w>": 5923, "ch.</w>": 5924, " minket</w>": 5925, "acts</w>": 5926, " intellig": 5927, " tudják</w>": 5928, " Jo": 5929, "ils</w>": 5930, " muscle</w>": 5931, " purpose</w>": 5932, "ory,</w>": 5933, " Bizottság</w>": 5934, " projekt": 5935, " Persze</w>": 5936, "ON": 5937, " Cal": 5938, " people,</w>": 5939, " kell.</w>": 5940, "cel": 5941, "ativ": 5942, " giving</w>": 5943, " egyen": 5944, " ném": 5945, " korlát": 5946, " elvesz": 5947, " remény": 5948, " application</w>": 5949, " felnőtt": 5950, " bármely</w>": 5951, " century,</w>": 5952, "ének,</w>": 5953, " ítél": 5954, "ills</w>": 5955, " jelentősen</w>": 5956, "etben</w>": 5957, " leave</w>": 5958, " tool</w>": 5959, " révén</w>": 5960, " perhaps</w>": 5961, " évtized": 5962, " férf": 5963, "over</w>": 5964, " olaj": 5965, " asked</w>": 5966, "eat</w>": 5967, " software</w>": 5968, " acid</w>": 5969, " subj": 5970, "hatjuk</w>": 5971, "hoz.</w>": 5972, " Európ": 5973, " cas": 5974, " reggel</w>": 5975, " benefit</w>": 5976, " you’re</w>": 5977, " E.</w>": 5978, " carry</w>": 5979, "üz": 5980, " treat</w>": 5981, " Rem": 5982, " egyedül</w>": 5983, "ín": 5984, " measures</w>": 5985, " lanyok</w>": 5986, " kamer": 5987, " pay</w>": 5988, " Se": 5989, " involves</w>": 5990, "fog": 5991, " solution</w>": 5992, " Mc": 5993, "8-ban</w>": 5994, "űr": 5995, "eration</w>": 5996, " kultúr": 5997, " oda</w>": 5998, " blog": 5999, " Jó</w>": 6000, " írja</w>": 6001, " önkormányzati</w>": 6002, "esc": 6003, " rob": 6004, "ead": 6005, " Zs": 6006, "You</w>": 6007, " gene</w>": 6008, "ogr": 6009, " East</w>": 6010, " vékony</w>": 6011, " oral</w>": 6012, "ead</w>": 6013, " nekünk</w>": 6014, " társaság": 6015, "adott</w>": 6016, "ever</w>": 6017, " repül": 6018, "orv": 6019, "mér": 6020, " fokoz": 6021, "ford": 6022, "zése</w>": 6023, "olt,</w>": 6024, " Sex</w>": 6025, " Not</w>": 6026, "ull</w>": 6027, " tudom,</w>": 6028, " 27": 6029, " George</w>": 6030, " upper</w>": 6031, " mérték": 6032, " diplom": 6033, " gyönyörű</w>": 6034, " D.</w>": 6035, "nem</w>": 6036, " tissue</w>": 6037, "atkoz": 6038, " sav": 6039, " search</w>": 6040, "alma</w>": 6041, " arg": 6042, " Mos": 6043, " organic</w>": 6044, "ual": 6045, " huge</w>": 6046, " legal</w>": 6047, " heavy</w>": 6048, " idején</w>": 6049, " And": 6050, " pur": 6051, " reason": 6052, " passed</w>": 6053, " suggest</w>": 6054, " basis</w>": 6055, " szereplő</w>": 6056, " unit</w>": 6057, " egykori</w>": 6058, " száz</w>": 6059, " tánc": 6060, " Zoltán</w>": 6061, " végig</w>": 6062, " successful</w>": 6063, " 0.": 6064, " 2012.</w>": 6065, "ket</w>": 6066, "esis</w>": 6067, "in.</w>": 6068, "éz</w>": 6069, " educational</w>": 6070, " interesting</w>": 6071, "-ban</w>": 6072, " exercise</w>": 6073, " felúj": 6074, " Japanese</w>": 6075, "hat,</w>": 6076, "igh": 6077, " stage</w>": 6078, " állt</w>": 6079, " tegy": 6080, " belép": 6081, " wild</w>": 6082, " napig</w>": 6083, " Web": 6084, " György</w>": 6085, " hot</w>": 6086, " sor</w>": 6087, "ért.</w>": 6088, "ols</w>": 6089, " surpr": 6090, " után.</w>": 6091, "eter</w>": 6092, " widely</w>": 6093, " igazgat": 6094, "ih": 6095, " arch": 6096, " származó</w>": 6097, " megúj": 6098, " adatokat</w>": 6099, " gre": 6100, " ajánlat": 6101, "omány</w>": 6102, "árm": 6103, " week": 6104, " mindössze</w>": 6105, " device</w>": 6106, "ött.</w>": 6107, " diák": 6108, "eep</w>": 6109, " Szent": 6110, " Int": 6111, "An": 6112, "ilag</w>": 6113, " suggests</w>": 6114, " valójában</w>": 6115, " elemz": 6116, " megoszt": 6117, " meghal": 6118, " Más": 6119, " discuss": 6120, " történelmi</w>": 6121, " szabályoz": 6122, " 26": 6123, " színész": 6124, "ezer</w>": 6125, "her</w>": 6126, " (c": 6127, " képzés": 6128, " kizár": 6129, " toj": 6130, " this,</w>": 6131, " forc": 6132, " coming</w>": 6133, "kal,</w>": 6134, " earlier</w>": 6135, " Sk": 6136, " információk</w>": 6137, "ically,</w>": 6138, "ulnak</w>": 6139, " megy</w>": 6140, "ün": 6141, " ügyfel": 6142, " rendőr": 6143, " maszti</w>": 6144, " adults</w>": 6145, "eres</w>": 6146, " devices</w>": 6147, " attól</w>": 6148, " alatti</w>": 6149, " sorozat": 6150, " curr": 6151, " Természetesen</w>": 6152, " 3.": 6153, " sch": 6154, "éti</w>": 6155, "ights</w>": 6156, " felső</w>": 6157, " member</w>": 6158, "ler</w>": 6159, "ission</w>": 6160, "evel": 6161, " kép</w>": 6162, " tiszta</w>": 6163, " talk</w>": 6164, " mostly</w>": 6165, "éki</w>": 6166, "vezető</w>": 6167, " le,</w>": 6168, " megfelelő": 6169, "vári</w>": 6170, " járt": 6171, "ule</w>": 6172, " tudn": 6173, " Sim": 6174, " instruc": 6175, "eds</w>": 6176, " famous</w>": 6177, " north</w>": 6178, " probléma</w>": 6179, " fail": 6180, "aries</w>": 6181, " állam</w>": 6182, " ablak": 6183, "nam": 6184, " formában</w>": 6185, " lelki</w>": 6186, "áshoz</w>": 6187, "érd": 6188, " Op": 6189, " szeretnénk</w>": 6190, " piece</w>": 6191, "ásnak</w>": 6192, "t:</w>": 6193, " professional</w>": 6194, " élelmiszer": 6195, " 2011.</w>": 6196, " Össz": 6197, "iak</w>": 6198, " 10.</w>": 6199, " folyamat</w>": 6200, " la</w>": 6201, " gazdag": 6202, " szempontból</w>": 6203, " combination</w>": 6204, " 28": 6205, " egyszerű": 6206, " distr": 6207, " Bank</w>": 6208, " múlt": 6209, " moved</w>": 6210, " exam": 6211, " metal</w>": 6212, " families</w>": 6213, "ight.</w>": 6214, " hivatkoz": 6215, " forest</w>": 6216, " models</w>": 6217, "ettünk</w>": 6218, " 0</w>": 6219, " óv": 6220, " nők": 6221, "ush": 6222, " worked</w>": 6223, "ley</w>": 6224, "ezzük</w>": 6225, " másod": 6226, " Aki</w>": 6227, "6-ban</w>": 6228, " e-mail</w>": 6229, " koncentr": 6230, "kos</w>": 6231, "and.</w>": 6232, " mean": 6233, " adj": 6234, " achieve</w>": 6235, " compet": 6236, " igazol": 6237, " du": 6238, " factor</w>": 6239, " energ": 6240, "able,</w>": 6241, "talan": 6242, " Hol": 6243, "ira</w>": 6244, "alom,</w>": 6245, " wrote</w>": 6246, " vád": 6247, " attack</w>": 6248, "elnek</w>": 6249, "istr": 6250, " előtti</w>": 6251, "opp": 6252, " készített</w>": 6253, " degree</w>": 6254, " Ügy": 6255, " remove</w>": 6256, " analys": 6257, " 187": 6258, " kert": 6259, "eny</w>": 6260, " graph": 6261, " laws</w>": 6262, ":00</w>": 6263, " testing</w>": 6264, " mondta,</w>": 6265, " üzem": 6266, "ven</w>": 6267, " bef": 6268, "mar": 6269, " Des": 6270, " szem</w>": 6271, " akiknek</w>": 6272, " patterns</w>": 6273, " Si": 6274, "ino</w>": 6275, " pet": 6276, " oktatás": 6277, " gyulladás": 6278, " recently</w>": 6279, " self": 6280, "ue,</w>": 6281, "anak.</w>": 6282, " rendelet</w>": 6283, " weather</w>": 6284, " perform</w>": 6285, " kínai</w>": 6286, " hú": 6287, " Pal": 6288, "ere,</w>": 6289, " elektromos</w>": 6290, "rod": 6291, " miss": 6292, "öm</w>": 6293, " benne,</w>": 6294, " apa</w>": 6295, " weak": 6296, " puncik</w>": 6297, " ol": 6298, " korlátoz": 6299, " electrical</w>": 6300, " jó,</w>": 6301, "emi</w>": 6302, "5-ben</w>": 6303, "okról</w>": 6304, " lett.</w>": 6305, " gyűjt": 6306, " EU</w>": 6307, "es;</w>": 6308, "őnek</w>": 6309, "ister</w>": 6310, "ákat,</w>": 6311, "f,</w>": 6312, " hasonlóan</w>": 6313, " 2014.</w>": 6314, " segítséget</w>": 6315, " nyelvű</w>": 6316, " becoming</w>": 6317, " hosszabb</w>": 6318, " ell": 6319, "ette.</w>": 6320, " csod": 6321, "een</w>": 6322, " szeretnék</w>": 6323, "ki</w>": 6324, " temperatures</w>": 6325, " treated</w>": 6326, "oth</w>": 6327, " sugar</w>": 6328, " basz": 6329, " környék": 6330, " Spanish</w>": 6331, " vásárol": 6332, " Civil</w>": 6333, "hetik</w>": 6334, " spe": 6335, " scal": 6336, " need": 6337, "thet": 6338, "Meg": 6339, " egyszer": 6340, "m.</w>": 6341, " ess": 6342, " nuclear</w>": 6343, " See</w>": 6344, "aying</w>": 6345, " Tamás</w>": 6346, " zöld</w>": 6347, " elej": 6348, " Mo": 6349, " elvár": 6350, "ítva</w>": 6351, " elsz": 6352, " másik": 6353, " male</w>": 6354, " lehető</w>": 6355, " (E": 6356, " ház</w>": 6357, " oxygen</w>": 6358, " Lev": 6359, " valak": 6360, "ons,</w>": 6361, " shall</w>": 6362, " ten": 6363, " chat</w>": 6364, " stay</w>": 6365, "les,</w>": 6366, " lényeg": 6367, "7-ben</w>": 6368, " summer</w>": 6369, " olasz</w>": 6370, " lesznek</w>": 6371, " dat": 6372, " prop": 6373, " határid": 6374, "ectiv": 6375, " rules</w>": 6376, " valu": 6377, "esen,</w>": 6378, " disord": 6379, "ences</w>": 6380, "lat</w>": 6381, " tar": 6382, " megtart": 6383, "a’s</w>": 6384, ".hu</w>": 6385, " doesn’t</w>": 6386, "esse</w>": 6387, " már": 6388, "ects,</w>": 6389, " depending</w>": 6390, " changed</w>": 6391, " Part": 6392, " betegségek</w>": 6393, " wind</w>": 6394, " Sal": 6395, " hun": 6396, "ali</w>": 6397, "iban</w>": 6398, " Cap": 6399, " viol": 6400, " rejt": 6401, "orial</w>": 6402, "tin</w>": 6403, " szám</w>": 6404, " 1,</w>": 6405, " reag": 6406, " szépen</w>": 6407, " rendszeres</w>": 6408, " collection</w>": 6409, " describe</w>": 6410, "ise,</w>": 6411, "ification</w>": 6412, "9-ben</w>": 6413, "fér": 6414, " megad": 6415, " ős": 6416, " eszközök</w>": 6417, " érkezett</w>": 6418, " dark</w>": 6419, " Ma</w>": 6420, " Es": 6421, "ajok</w>": 6422, "a?</w>": 6423, " companies</w>": 6424, "ús</w>": 6425, "east</w>": 6426, " class": 6427, " nyugdíj": 6428, "ának,</w>": 6429, " Önkormányzat</w>": 6430, " anal": 6431, " mul": 6432, "lés</w>": 6433, " Day</w>": 6434, " lehetne</w>": 6435, " visit</w>": 6436, "iben</w>": 6437, " apr": 6438, " puszt": 6439, "EK</w>": 6440, " minőségi</w>": 6441, " Its</w>": 6442, " szórakoz": 6443, "leges</w>": 6444, " foreign</w>": 6445, "hető.</w>": 6446, " contin": 6447, " Ilyen</w>": 6448, "V.</w>": 6449, " tudja,</w>": 6450, "ily</w>": 6451, " kombin": 6452, " még": 6453, " internal</w>": 6454, " conn": 6455, " kulcs": 6456, "ional</w>": 6457, "ark</w>": 6458, "ano</w>": 6459, " kedvenc</w>": 6460, "zel</w>": 6461, "ások,</w>": 6462, " game</w>": 6463, " Online</w>": 6464, " world,</w>": 6465, "csak</w>": 6466, "2-ben</w>": 6467, " location</w>": 6468, " D</w>": 6469, " Mac": 6470, " anything</w>": 6471, "árom</w>": 6472, "esti": 6473, " fül": 6474, " ·</w>": 6475, " 21</w>": 6476, " regions</w>": 6477, " scale</w>": 6478, " értesít": 6479, " party</w>": 6480, "2)</w>": 6481, " bone</w>": 6482, " import": 6483, "1-ben</w>": 6484, "jük.</w>": 6485, " káv": 6486, " mainly</w>": 6487, " Christian</w>": 6488, " California</w>": 6489, " pénzt</w>": 6490, "ásához</w>": 6491, "vé</w>": 6492, " everything</w>": 6493, "ung</w>": 6494, " Pap": 6495, "ans.</w>": 6496, "pro": 6497, " kockázat": 6498, " visual</w>": 6499, " 80</w>": 6500, " kap</w>": 6501, " escort</w>": 6502, " beállítás": 6503, " nothing</w>": 6504, " egyed": 6505, "hez,</w>": 6506, "ection.</w>": 6507, "ségét</w>": 6508, " connected</w>": 6509, " 19</w>": 6510, "%-": 6511, " former</w>": 6512, " Union</w>": 6513, " szolgáltatások</w>": 6514, " megér": 6515, " Dis": 6516, "szex</w>": 6517, "tünk</w>": 6518, " Water</w>": 6519, " L.</w>": 6520, " olt": 6521, "ism": 6522, "eting</w>": 6523, " cases,</w>": 6524, "zük</w>": 6525, " tünetek</w>": 6526, " rendelkezésre</w>": 6527, " tudott</w>": 6528, "ged</w>": 6529, " cy": 6530, " highest</w>": 6531, " formáj": 6532, " river</w>": 6533, "acc": 6534, " property</w>": 6535, " 70</w>": 6536, " fájdalm": 6537, " megtud": 6538, " and/or</w>": 6539, " note</w>": 6540, " kiadás": 6541, "tható</w>": 6542, " demonstr": 6543, " Then</w>": 6544, "ush</w>": 6545, " cip": 6546, " eur": 6547, " figyelmet</w>": 6548, "iss</w>": 6549, " elnöke</w>": 6550, " tartja</w>": 6551, " liter": 6552, " learned</w>": 6553, " Ham": 6554, " teach</w>": 6555, " stud": 6556, " múlt</w>": 6557, "zott</w>": 6558, " pp.</w>": 6559, " igénybe</w>": 6560, "i-": 6561, ".000</w>": 6562, " sun</w>": 6563, " vette</w>": 6564, " következtében</w>": 6565, "erve</w>": 6566, " pil": 6567, " Gl": 6568, " felszer": 6569, " aktuális</w>": 6570, " significantly</w>": 6571, "ális,</w>": 6572, "oly</w>": 6573, "all,</w>": 6574, " exposed</w>": 6575, " Szolgáltató</w>": 6576, " Két</w>": 6577, "ettük</w>": 6578, "ás:</w>": 6579, " koncert": 6580, " The": 6581, "ae</w>": 6582, " anyagi</w>": 6583, "legesen</w>": 6584, " Kép": 6585, " rich</w>": 6586, " játékok</w>": 6587, " covered</w>": 6588, "ni?</w>": 6589, "ts,</w>": 6590, " ennél</w>": 6591, " drug</w>": 6592, " figure</w>": 6593, " Új</w>": 6594, " senk": 6595, "ather</w>": 6596, "ech": 6597, "rendszer</w>": 6598, " fogyás</w>": 6599, " azonos</w>": 6600, "ided</w>": 6601, " adult</w>": 6602, " hous": 6603, "eries</w>": 6604, " squ": 6605, " arany": 6606, "ural</w>": 6607, " fenti</w>": 6608, "észet": 6609, " correct</w>": 6610, " minőségű</w>": 6611, " Windows</w>": 6612, " character": 6613, " 2016.</w>": 6614, " vir": 6615, "téri</w>": 6616, " tervezett</w>": 6617, " work.</w>": 6618, " milli": 6619, " ist": 6620, " kom": 6621, " commercial</w>": 6622, " szerintem</w>": 6623, " presented</w>": 6624, " havi</w>": 6625, " ISBN</w>": 6626, " Med": 6627, " numerous</w>": 6628, " bit</w>": 6629, " February</w>": 6630, "almat</w>": 6631, " vesz</w>": 6632, " csaladi</w>": 6633, "ÁL": 6634, " Robert</w>": 6635, " külön": 6636, " 31": 6637, "őt,</w>": 6638, " művész": 6639, " seven</w>": 6640, "ozs": 6641, " 90</w>": 6642, " ow": 6643, " g</w>": 6644, "IS": 6645, " történik</w>": 6646, "ell,</w>": 6647, " version</w>": 6648, " sil": 6649, "ezett": 6650, "ezési</w>": 6651, "ine": 6652, " occup": 6653, "ble</w>": 6654, "telen": 6655, "ím": 6656, " independent</w>": 6657, " Tart": 6658, " javaslat": 6659, " actual</w>": 6660, " múlva</w>": 6661, " hamarosan</w>": 6662, "adi</w>": 6663, "tan": 6664, "ure": 6665, " ezáltal</w>": 6666, " week</w>": 6667, " hirtelen</w>": 6668, " álm": 6669, " apró</w>": 6670, " takar": 6671, " db</w>": 6672, " Fre": 6673, " ilyenkor</w>": 6674, " lived</w>": 6675, "eked": 6676, "usion</w>": 6677, " steps</w>": 6678, " mel": 6679, " situation</w>": 6680, " előtt": 6681, " telj": 6682, "ailag</w>": 6683, " transform": 6684, "land": 6685, " csat": 6686, " south</w>": 6687, "ei": 6688, " oly": 6689, " különböz": 6690, "ánál</w>": 6691, " benyújt": 6692, " represent</w>": 6693, " hord": 6694, " magam": 6695, " commun": 6696, " Both</w>": 6697, "ottam</w>": 6698, " T</w>": 6699, " pót": 6700, " Vagy</w>": 6701, " óriási</w>": 6702, " teeth</w>": 6703, " radiation</w>": 6704, " layer</w>": 6705, " nam": 6706, " syn": 6707, "áron</w>": 6708, " bél": 6709, " (and</w>": 6710, " több,</w>": 6711, " nyilván": 6712, "ress": 6713, " enyh": 6714, "ath</w>": 6715, " szakm": 6716, " apply</w>": 6717, " resistance</w>": 6718, " grad": 6719, " recogn": 6720, "anak,</w>": 6721, " fellép": 6722, "ációt</w>": 6723, " workers</w>": 6724, " király</w>": 6725, " Szeret": 6726, " properties</w>": 6727, " meglep": 6728, " gold</w>": 6729, " Tehát</w>": 6730, "eled</w>": 6731, " felad": 6732, "jünk</w>": 6733, " ezelőtt</w>": 6734, "ítani,</w>": 6735, " EU": 6736, " fürd": 6737, "AP": 6738, " findings</w>": 6739, "onc": 6740, " úgynevezett</w>": 6741, " success": 6742, " előtt,</w>": 6743, " author": 6744, " gazdag</w>": 6745, " lánya</w>": 6746, "0s,</w>": 6747, " voltam</w>": 6748, "its,</w>": 6749, "1)</w>": 6750, " klasszikus</w>": 6751, " Central</w>": 6752, "AT</w>": 6753, " elhagy": 6754, " sit": 6755, "bor": 6756, " adja</w>": 6757, " City</w>": 6758, " ext": 6759, "its.</w>": 6760, " break</w>": 6761, " Park</w>": 6762, "ity": 6763, " neked</w>": 6764, " China</w>": 6765, " kapcsolód": 6766, " mög": 6767, "ide.</w>": 6768, "oes</w>": 6769, "estr": 6770, " frequently</w>": 6771, " Using</w>": 6772, "oon</w>": 6773, " Dep": 6774, " Dun": 6775, " nem,</w>": 6776, " tub": 6777, " valós": 6778, " Pi": 6779, " mem": 6780, "used</w>": 6781, " relative</w>": 6782, " hab": 6783, " dön": 6784, " released</w>": 6785, " naponta</w>": 6786, " látvány": 6787, " sourc": 6788, "orb": 6789, "vezető": 6790, " amik</w>": 6791, "ey.</w>": 6792, " hozott</w>": 6793, " épület</w>": 6794, "ákban</w>": 6795, " particip": 6796, " Internet</w>": 6797, " Szám": 6798, "fer": 6799, "ods</w>": 6800, "3-ban</w>": 6801, " munkát</w>": 6802, " winter</w>": 6803, "ekint": 6804, "eink": 6805, " lakó": 6806, "ális": 6807, " nyílt</w>": 6808, " Program</w>": 6809, "ánd": 6810, " map</w>": 6811, " initial</w>": 6812, " therapy</w>": 6813, " gyan": 6814, " weeks</w>": 6815, " válik</w>": 6816, " offers</w>": 6817, "bizt": 6818, "elmet</w>": 6819, " review</w>": 6820, " Tw": 6821, "ban": 6822, " turned</w>": 6823, " kezelésére</w>": 6824, "oy</w>": 6825, "ezik</w>": 6826, " bus": 6827, "ili": 6828, " alatt.</w>": 6829, "zet</w>": 6830, " műszaki</w>": 6831, " anyag</w>": 6832, " Erd": 6833, " parazit": 6834, " neg": 6835, " tagja</w>": 6836, " Red</w>": 6837, " területen</w>": 6838, " hear": 6839, " moth": 6840, " (B": 6841, " ost": 6842, "eling</w>": 6843, "ájának</w>": 6844, " köteles</w>": 6845, " rule</w>": 6846, " plastic</w>": 6847, "ograph": 6848, " Zrt.</w>": 6849, " uns": 6850, "wh": 6851, "tek.</w>": 6852, " reducing</w>": 6853, " displ": 6854, "earing</w>": 6855, " refers</w>": 6856, "ever": 6857, " templom": 6858, " univers": 6859, " complet": 6860, " valamennyi</w>": 6861, "EM": 6862, " deal</w>": 6863, "wor": 6864, " tox": 6865, " ráj": 6866, " '": 6867, " cost": 6868, "ini</w>": 6869, " neve</w>": 6870, " biztos,</w>": 6871, " neki,</w>": 6872, " közt</w>": 6873, " indult</w>": 6874, " létre</w>": 6875, " csökken": 6876, " otthoni</w>": 6877, "vállal": 6878, " Ok": 6879, "hetünk</w>": 6880, "ör</w>": 6881, " megkérd": 6882, "sc": 6883, " főz": 6884, " Education</w>": 6885, " wel": 6886, "társ": 6887, " kereskedelmi</w>": 6888, " conducted</w>": 6889, " hope</w>": 6890, " terjed": 6891, " Spec": 6892, " run": 6893, " birth</w>": 6894, " hand,</w>": 6895, " tak": 6896, " negatív</w>": 6897, "éppen</w>": 6898, " starting</w>": 6899, " glob": 6900, " sü": 6901, " standard": 6902, "active</w>": 6903, " nehezen</w>": 6904, " Olyan</w>": 6905, " jutott</w>": 6906, "köd": 6907, " olyan,</w>": 6908, " jelöl": 6909, " szolgáltat": 6910, " képvis": 6911, " compar": 6912, "ed:</w>": 6913, " 9.</w>": 6914, "akar": 6915, " gyakorl": 6916, " custom": 6917, " önálló</w>": 6918, " szolgáló</w>": 6919, " amounts</w>": 6920, " intézmény</w>": 6921, " kezdve</w>": 6922, " structures</w>": 6923, " performed</w>": 6924, " intéz": 6925, " leads</w>": 6926, " kir": 6927, " pihen": 6928, "GY": 6929, "avar": 6930, " names</w>": 6931, " marad</w>": 6932, " sziget": 6933, "ets,</w>": 6934, "aded</w>": 6935, " primarily</w>": 6936, " minutes</w>": 6937, "adék</w>": 6938, "um.</w>": 6939, "acted</w>": 6940, " sur": 6941, " serve</w>": 6942, "akoz": 6943, " picture</w>": 6944, " indok": 6945, " eld": 6946, "ához.</w>": 6947, " web</w>": 6948, " közvet": 6949, "ET</w>": 6950, " lett,</w>": 6951, " electr": 6952, " day,</w>": 6953, " rock": 6954, " chronic</w>": 6955, " előseg": 6956, " üzen": 6957, " érez": 6958, " gets</w>": 6959, "uted</w>": 6960, " gain</w>": 6961, " írt</w>": 6962, " nyújt</w>": 6963, " prostituált": 6964, "szervez": 6965, " Tur": 6966, " emissions</w>": 6967, " szakember": 6968, " others.</w>": 6969, " tetej": 6970, " ques": 6971, "áss": 6972, " brit</w>": 6973, " news</w>": 6974, " clinical</w>": 6975, " megelőz": 6976, "közben</w>": 6977, " más,</w>": 6978, "ót.</w>": 6979, "ness,</w>": 6980, " Rel": 6981, " components</w>": 6982, " növel": 6983, "yst": 6984, " Egyesület</w>": 6985, "ist.</w>": 6986, " venni</w>": 6987, " alsó</w>": 6988, " bad</w>": 6989, "ota</w>": 6990, "ada</w>": 6991, " process.</w>": 6992, "ular": 6993, " áll,</w>": 6994, " ic": 6995, "ítást</w>": 6996, "zák</w>": 6997, " Add": 6998, " pain": 6999, " tart</w>": 7000, " elnök</w>": 7001, " Ü": 7002, " mielőtt</w>": 7003, "utatás": 7004, " hearing</w>": 7005, " resid": 7006, "ears</w>": 7007, "ok:</w>": 7008, " Ú": 7009, "tér": 7010, " helped</w>": 7011, " affects</w>": 7012, "These</w>": 7013, " exactly</w>": 7014, " es</w>": 7015, " fo": 7016, " broad": 7017, "ked</w>": 7018, "anic</w>": 7019, "hatják</w>": 7020, " conduc": 7021, " moz": 7022, "that</w>": 7023, " capacity</w>": 7024, " kerékp": 7025, " 185": 7026, " pattern</w>": 7027, " létez": 7028, "ipp": 7029, " fish": 7030, "min": 7031, " bár": 7032, " mass": 7033, " suff": 7034, " util": 7035, " tudok</w>": 7036, " cycl": 7037, "alap": 7038, " kérdés</w>": 7039, " human": 7040, "ough": 7041, " évig</w>": 7042, " embert</w>": 7043, "ocs": 7044, "ens,</w>": 7045, "ints</w>": 7046, " colon": 7047, "19": 7048, "ulating</w>": 7049, " megny": 7050, " functions</w>": 7051, "ican</w>": 7052, " pers": 7053, "li</w>": 7054, " ign": 7055, " travel</w>": 7056, " szabadság": 7057, " finom</w>": 7058, " urban</w>": 7059, " Bizt": 7060, " rock</w>": 7061, " changing</w>": 7062, " wind": 7063, "Gy": 7064, " linked</w>": 7065, " disease,</w>": 7066, "ech</w>": 7067, "oz</w>": 7068, " megnyit": 7069, "ant.</w>": 7070, " szexvideo</w>": 7071, " chec": 7072, " templ": 7073, " Erre</w>": 7074, "és:</w>": 7075, " kan": 7076, "hatók</w>": 7077, " include:</w>": 7078, " previously</w>": 7079, "ekk": 7080, "kl": 7081, "otes</w>": 7082, " Dec": 7083, " dokumentum": 7084, " legk": 7085, " western</w>": 7086, " tabl": 7087, " tagjai</w>": 7088, " mögött</w>": 7089, "szik</w>": 7090, " chance</w>": 7091, " volna.</w>": 7092, "ánk": 7093, " nekik</w>": 7094, "ekben,</w>": 7095, " meghív": 7096, " előtt.</w>": 7097, " (f": 7098, " Rad": 7099, " determined</w>": 7100, "nel</w>": 7101, " distribution</w>": 7102, " 22</w>": 7103, " VI": 7104, " Cont": 7105, "ác": 7106, " lej": 7107, " machine</w>": 7108, "ző": 7109, " interv": 7110, " ahogyan</w>": 7111, "ikl": 7112, "ect.</w>": 7113, "éről,</w>": 7114, "evő</w>": 7115, " pow": 7116, " populations</w>": 7117, " veget": 7118, " individu": 7119, "ája,</w>": 7120, " visszat": 7121, " aspects</w>": 7122, "thy</w>": 7123, " riv": 7124, " gazd": 7125, "ítani.</w>": 7126, " Munk": 7127, "sa</w>": 7128, "intéz": 7129, " security</w>": 7130, " emerg": 7131, " block": 7132, " legfeljebb</w>": 7133, " happ": 7134, "het,</w>": 7135, " date</w>": 7136, " hands</w>": 7137, "ees</w>": 7138, "okhoz</w>": 7139, " divided</w>": 7140, " változtat": 7141, " effort</w>": 7142, " himself</w>": 7143, " extreme</w>": 7144, "yn": 7145, " fegyver": 7146, " megoldás</w>": 7147, "ologists</w>": 7148, "iff": 7149, " gyerek</w>": 7150, "oo</w>": 7151, " no": 7152, "ps</w>": 7153, " meglát": 7154, " (see</w>": 7155, " vérnyom": 7156, " mindenképpen</w>": 7157, " mic": 7158, " kórház": 7159, "vers": 7160, "uck</w>": 7161, " mis": 7162, " elad": 7163, " costs</w>": 7164, " Gre": 7165, " casting</w>": 7166, " majdnem</w>": 7167, " Német": 7168, " remained</w>": 7169, " Bur": 7170, " kívánt</w>": 7171, "ója,</w>": 7172, " ment</w>": 7173, " alatt,</w>": 7174, " garant": 7175, "essing</w>": 7176, "eik</w>": 7177, " situ": 7178, " ellen.</w>": 7179, " domin": 7180, " Now</w>": 7181, " success</w>": 7182, " megvásár": 7183, " akció": 7184, " vacc": 7185, "eség": 7186, " Ami</w>": 7187, "tött": 7188, "ítható</w>": 7189, "get": 7190, " agricultural</w>": 7191, " Ass": 7192, " csend": 7193, " 30": 7194, "ES</w>": 7195, " den": 7196, "ium,</w>": 7197, " -,</w>": 7198, " educ": 7199, " wid": 7200, "országi</w>": 7201, " Kat": 7202, "TE": 7203, " industrial</w>": 7204, "ical,</w>": 7205, "by</w>": 7206, " mand": 7207, " polit": 7208, " finding</w>": 7209, "ated,</w>": 7210, " eddigi</w>": 7211, " technikai</w>": 7212, " doll": 7213, " fér": 7214, " Attila</w>": 7215, " indicate</w>": 7216, " release</w>": 7217, " Ref": 7218, " egyelőre</w>": 7219, " nyilvántart": 7220, "ue.</w>": 7221, "ől.</w>": 7222, " veszi</w>": 7223, " particles</w>": 7224, " magam</w>": 7225, " ren": 7226, " ten</w>": 7227, "ensive</w>": 7228, " Ehhez</w>": 7229, "ences.</w>": 7230, " night</w>": 7231, "elni,</w>": 7232, " említ": 7233, "elve</w>": 7234, " is:</w>": 7235, "ció": 7236, " eljut": 7237, " kényelm": 7238, " asztal": 7239, " prim": 7240, " Talán</w>": 7241, "ector</w>": 7242, "sing</w>": 7243, " England</w>": 7244, " ig": 7245, " állap": 7246, "önt": 7247, " száz": 7248, " appl": 7249, " Ó": 7250, " less": 7251, "ures,</w>": 7252, " character</w>": 7253, " izg": 7254, " lenne,</w>": 7255, "világ": 7256, "int,</w>": 7257, " Thomas</w>": 7258, "itting</w>": 7259, "alál": 7260, " fruit</w>": 7261, " room</w>": 7262, " ajánlott</w>": 7263, "díj": 7264, " reform": 7265, " dig": 7266, " ál": 7267, " beszéd": 7268, " pip": 7269, " consists</w>": 7270, " J</w>": 7271, " Ugyan": 7272, " kissé</w>": 7273, " square</w>": 7274, " kezelés": 7275, "/201": 7276, " hangul": 7277, " eltérő</w>": 7278, " Charles</w>": 7279, "akkal</w>": 7280, " zenei</w>": 7281, " átlag": 7282, "nyom": 7283, " wood": 7284, " fognak</w>": 7285, " tudni</w>": 7286, " darab</w>": 7287, " Jul": 7288, " children.</w>": 7289, " employ": 7290, " Cor": 7291, "eless</w>": 7292, "ját.</w>": 7293, " Met": 7294, " időszakban</w>": 7295, " approach": 7296, "atik": 7297, "ters,</w>": 7298, " Human</w>": 7299, "ing:</w>": 7300, "ression</w>": 7301, " forced</w>": 7302, " Nép": 7303, " degrees</w>": 7304, " sample</w>": 7305, " life,</w>": 7306, " restr": 7307, " iskolai</w>": 7308, " explore</w>": 7309, " disp": 7310, "eing</w>": 7311, " genes</w>": 7312, " period": 7313, " megprób": 7314, "izs": 7315, " á": 7316, " Budapest": 7317, " 2017.</w>": 7318, " elev": 7319, "m,</w>": 7320, "ements.</w>": 7321, " ones</w>": 7322, " long-term</w>": 7323, "álták</w>": 7324, "ove</w>": 7325, "val": 7326, " Commun": 7327, " anny": 7328, " polgármester": 7329, " ujj": 7330, " bárm": 7331, " nélkül.</w>": 7332, "il,</w>": 7333, "vár": 7334, " hisz": 7335, " compos": 7336, " cov": 7337, " rövid": 7338, " Som": 7339, " lit": 7340, " running</w>": 7341, " strategies</w>": 7342, " sing": 7343, " multi": 7344, "son,</w>": 7345, " Dir": 7346, " tűnik,</w>": 7347, " scre": 7348, "ékeny": 7349, " kapcsolat</w>": 7350, "éket</w>": 7351, " kapcsán</w>": 7352, " anyagok</w>": 7353, " file</w>": 7354, " area.</w>": 7355, " reference</w>": 7356, " decision</w>": 7357, " kegy": 7358, " eltűn": 7359, " bevétel": 7360, " megint</w>": 7361, " mellé</w>": 7362, " tünetei</w>": 7363, "entr": 7364, "illa</w>": 7365, " allowing</w>": 7366, " course,</w>": 7367, "odás</w>": 7368, " Nincs</w>": 7369, " színvonal": 7370, " signal</w>": 7371, " gyakorlatilag</w>": 7372, "gat": 7373, " motor": 7374, "ologist</w>": 7375, " Rob": 7376, "Ez": 7377, " összetev": 7378, " megáll": 7379, " Two</w>": 7380, " biological</w>": 7381, " feed</w>": 7382, " rajt": 7383, " Ő": 7384, " verseny</w>": 7385, "crip": 7386, "ő:</w>": 7387, " Város</w>": 7388, "óknak</w>": 7389, "vid": 7390, " vár</w>": 7391, " technique</w>": 7392, " mester": 7393, " balance</w>": 7394, " acid": 7395, " érdekében.</w>": 7396, " status</w>": 7397, " Def": 7398, " vizsgálat</w>": 7399, " remember</w>": 7400, " ocean</w>": 7401, "tivity</w>": 7402, " P.</w>": 7403, "arn": 7404, " eight</w>": 7405, " largely</w>": 7406, " guide</w>": 7407, " Orbán</w>": 7408, " bod": 7409, " beruház": 7410, " egyik": 7411, "zések</w>": 7412, " surrounding</w>": 7413, " farm": 7414, " Azonban</w>": 7415, "ro</w>": 7416, " clearly</w>": 7417, " galax": 7418, "hez.</w>": 7419, " kényszer": 7420, " demand</w>": 7421, " 2010</w>": 7422, " magát,</w>": 7423, " „A</w>": 7424, " root</w>": 7425, " (19": 7426, " üzemeltet": 7427, "lo": 7428, " Hung": 7429, " post</w>": 7430, "állított</w>": 7431, "jét</w>": 7432, " nyak": 7433, " practices</w>": 7434, " piaci</w>": 7435, " finom": 7436, " Mond": 7437, " advanced</w>": 7438, "ön,</w>": 7439, "ems</w>": 7440, " remél": 7441, " environment.</w>": 7442, "ítsa</w>": 7443, "ebr": 7444, "áltak</w>": 7445, " 150</w>": 7446, "Mind": 7447, " eyes</w>": 7448, " (H": 7449, " esetleges</w>": 7450, " kény": 7451, " fogalmaz": 7452, " applications</w>": 7453, "Am": 7454, " vad": 7455, " sexual</w>": 7456, " szempont": 7457, " continu": 7458, " Ház": 7459, "ből,</w>": 7460, " fü": 7461, "ook</w>": 7462, " fell": 7463, " pedagóg": 7464, "ölt</w>": 7465, " vasárnap</w>": 7466, " remek</w>": 7467, "-,</w>": 7468, " hely</w>": 7469, " Adv": 7470, "rendszer": 7471, " létesít": 7472, "ship</w>": 7473, " orb": 7474, " offic": 7475, " day": 7476, " egyház": 7477, "la</w>": 7478, " katonai</w>": 7479, "ects.</w>": 7480, "esi</w>": 7481, " felett</w>": 7482, "ológia</w>": 7483, " hit</w>": 7484, " váll": 7485, " tétel": 7486, " András</w>": 7487, "ebb,</w>": 7488, " Com": 7489, " mellett,</w>": 7490, " mez": 7491, " self-": 7492, " Hon": 7493, " equipment</w>": 7494, " reached</w>": 7495, " is!</w>": 7496, "ung": 7497, "od.</w>": 7498, " előkészít": 7499, "elk": 7500, " easier</w>": 7501, " voltak,</w>": 7502, " helyett": 7503, " 35</w>": 7504, " porn</w>": 7505, " terület</w>": 7506, "osítás": 7507, "sd</w>": 7508, " sosem</w>": 7509, " megmutat": 7510, " Í": 7511, " lay": 7512, " decl": 7513, " Social</w>": 7514, " egyetem": 7515, " maxim": 7516, "nék</w>": 7517, " Ft": 7518, " Facebook</w>": 7519, " Washington</w>": 7520, "IN": 7521, " éven</w>": 7522, "íp": 7523, " opportunities</w>": 7524, " Wil": 7525, " influ": 7526, " target</w>": 7527, " promote</w>": 7528, "éshez</w>": 7529, "földi</w>": 7530, " letter</w>": 7531, "ived</w>": 7532, "ively</w>": 7533, "ogy</w>": 7534, " óvod": 7535, " bank</w>": 7536, " wanted</w>": 7537, " bott": 7538, "ogen": 7539, " killed</w>": 7540, "ember": 7541, " 3D</w>": 7542, " subs": 7543, " megadott</w>": 7544, "eri</w>": 7545, " sebesség": 7546, " century.</w>": 7547, " gard": 7548, " Del": 7549, " nál": 7550, " die</w>": 7551, " beszer": 7552, "isz</w>": 7553, " electric</w>": 7554, " cer": 7555, " ori": 7556, " 29": 7557, "40</w>": 7558, " pillan": 7559, " clean</w>": 7560, " health": 7561, "St": 7562, "ict</w>": 7563, "ítására</w>": 7564, " Ahogy</w>": 7565, " csill": 7566, " wast": 7567, " Children</w>": 7568, "ote</w>": 7569, "ient</w>": 7570, " ingatlan": 7571, " átad": 7572, "own": 7573, " nyugati</w>": 7574, " szerzett</w>": 7575, " otth": 7576, "ook": 7577, " szeg": 7578, " adta</w>": 7579, "por": 7580, "ets.</w>": 7581, "ünket</w>": 7582, "ud</w>": 7583, "ort.</w>": 7584, "ából.</w>": 7585, "round</w>": 7586, "ords</w>": 7587, " treat": 7588, "essé</w>": 7589, " Therefore,</w>": 7590, " részvétel": 7591, " served</w>": 7592, " önkormányzat</w>": 7593, "D.</w>": 7594, " iron</w>": 7595, " frequency</w>": 7596, " H.</w>": 7597, "ikk": 7598, " jelentőség": 7599, " method": 7600, " Szabó</w>": 7601, " Ins": 7602, " Brit": 7603, "iát</w>": 7604, " drugs</w>": 7605, " tre": 7606, " vonz": 7607, " everyone</w>": 7608, "almas": 7609, "ures.</w>": 7610, " gum": 7611, " étrend": 7612, "-2": 7613, " regisztráció</w>": 7614, " áll.</w>": 7615, " iránti</w>": 7616, " írás": 7617, "osed</w>": 7618, " cities</w>": 7619, "állás</w>": 7620, " exec": 7621, "ánc": 7622, "jenek</w>": 7623, "epl": 7624, " dohányz": 7625, " kiemelt</w>": 7626, "ről.</w>": 7627, " eleg": 7628, " tv</w>": 7629, " kol": 7630, "ds</w>": 7631, "ar.</w>": 7632, "ala</w>": 7633, " friss": 7634, " miatt,</w>": 7635, " trag": 7636, " work,</w>": 7637, "eme</w>": 7638, "edd": 7639, " He": 7640, "uls": 7641, "tery</w>": 7642, " kept</w>": 7643, " House</w>": 7644, "áltam</w>": 7645, "here</w>": 7646, " bolt": 7647, " Test": 7648, " bill": 7649, "erek</w>": 7650, " reaction</w>": 7651, " pass</w>": 7652, " képet</w>": 7653, " capital</w>": 7654, "elt,</w>": 7655, "ányi</w>": 7656, " Expl": 7657, " sejt": 7658, " flo": 7659, " most": 7660, " instance,</w>": 7661, "rom</w>": 7662, " áram": 7663, "űv": 7664, " ígér": 7665, "embe</w>": 7666, " infl": 7667, "ilv": 7668, " Nov": 7669, " hűt": 7670, " ham": 7671, " követelmény": 7672, "r.</w>": 7673, "ways</w>": 7674, "icts</w>": 7675, " megoldás": 7676, " containing</w>": 7677, "-B": 7678, " projects</w>": 7679, " internetes</w>": 7680, " classroom</w>": 7681, " támogatás</w>": 7682, " hány": 7683, "edett</w>": 7684, " tenger": 7685, " vezér": 7686, " applic": 7687, " elé</w>": 7688, " wild": 7689, " standards</w>": 7690, " rendelkezik</w>": 7691, "ségének</w>": 7692, " actions</w>": 7693, "szav": 7694, " reasons</w>": 7695, " adag": 7696, " reb": 7697, " hangsúlyoz": 7698, " sign</w>": 7699, " contribute</w>": 7700, " elmondta,</w>": 7701, "felé</w>": 7702, " fur": 7703, " Kis": 7704, " immediately</w>": 7705, " szellemi</w>": 7706, " system": 7707, "er:</w>": 7708, " folyam": 7709, " cross": 7710, "ari</w>": 7711, " Föld": 7712, "X.</w>": 7713, "kan": 7714, "ications</w>": 7715, "ird</w>": 7716, " ember,</w>": 7717, " imád": 7718, " alternative</w>": 7719, "eként</w>": 7720, " save</w>": 7721, " Ros": 7722, "itel": 7723, " nagyjából</w>": 7724, " diabetes</w>": 7725, " mondja</w>": 7726, " aware</w>": 7727, " inher": 7728, " szűr": 7729, "ezet</w>": 7730, "szerek</w>": 7731, " Africa</w>": 7732, "part": 7733, " mennyi</w>": 7734, " fáj": 7735, " ág": 7736, " caus": 7737, " Jap": 7738, " vajon</w>": 7739, "acking</w>": 7740, " speak": 7741, " csatorn": 7742, " szel": 7743, "aks</w>": 7744, " ped": 7745, " bodies</w>": 7746, " bit": 7747, " szempontjából</w>": 7748, " köztük</w>": 7749, " core</w>": 7750, "imp": 7751, " mindaz": 7752, " hideg</w>": 7753, " creat": 7754, "ette:</w>": 7755, " állás": 7756, " kop": 7757, " parkol": 7758, " formation</w>": 7759, " oly</w>": 7760, " férg": 7761, "els,</w>": 7762, "odik</w>": 7763, " attempt</w>": 7764, " Space</w>": 7765, " előbb</w>": 7766, "óc": 7767, "ábor": 7768, " mm</w>": 7769, " További</w>": 7770, "ezte,</w>": 7771, " Society</w>": 7772, " elj": 7773, " supported</w>": 7774, ".;</w>": 7775, " High</w>": 7776, " annual</w>": 7777, " személyi</w>": 7778, " words,</w>": 7779, "en?</w>": 7780, " grow": 7781, "okr": 7782, "utat": 7783, " lass": 7784, " nyert": 7785, " kiny": 7786, " discuss</w>": 7787, " büntet": 7788, " le.</w>": 7789, " sett": 7790, "ould</w>": 7791, " feladatok</w>": 7792, " beavatkoz": 7793, " összet": 7794, " számítógép": 7795, "ingly</w>": 7796, "ásos</w>": 7797, " támad": 7798, " al.,</w>": 7799, " depends</w>": 7800, "ays,</w>": 7801, "ally.</w>": 7802, "ózis</w>": 7803, " néven</w>": 7804, " direction</w>": 7805, " ezúttal</w>": 7806, "eph": 7807, "6)</w>": 7808, "Az": 7809, " planet</w>": 7810, "500</w>": 7811, " amb": 7812, " Av": 7813, "Cs": 7814, " 2013</w>": 7815, " characteristics</w>": 7816, " viszonylag</w>": 7817, " csin": 7818, " job</w>": 7819, " Us": 7820, " recommended</w>": 7821, " hid": 7822, " 20.</w>": 7823, "ezs": 7824, "omm": 7825, " korai</w>": 7826, "res</w>": 7827, " Techn": 7828, "ók.</w>": 7829, " körülbelül</w>": 7830, " camp": 7831, " jellemző</w>": 7832, " egyetemi</w>": 7833, " magnetic</w>": 7834, "alization</w>": 7835, "osp": 7836, " alb": 7837, "D,</w>": 7838, " Könyv": 7839, " kellemes</w>": 7840, " varázs": 7841, "ny</w>": 7842, " annyit</w>": 7843, " inspir": 7844, " azoknak</w>": 7845, " 2012</w>": 7846, " study,</w>": 7847, "ontr": 7848, " BM": 7849, "féle</w>": 7850, " discov": 7851, " output</w>": 7852, "énk</w>": 7853, " rov": 7854, "részt</w>": 7855, " többen</w>": 7856, " bottom</w>": 7857, " surg": 7858, "iver</w>": 7859, " Pat": 7860, "icians</w>": 7861, "izm": 7862, "ages.</w>": 7863, "ítvány": 7864, " conven": 7865, " mennyiségű</w>": 7866, " fiatalok</w>": 7867, " stories</w>": 7868, " prior</w>": 7869, "fi": 7870, "anci": 7871, "ola</w>": 7872, " pri": 7873, "ésnek</w>": 7874, " :": 7875, "TI": 7876, "árd</w>": 7877, "ection,</w>": 7878, "iasis</w>": 7879, "á,</w>": 7880, " tol": 7881, "ető,</w>": 7882, " fight</w>": 7883, " maszturb": 7884, " jog</w>": 7885, "kezett</w>": 7886, " lény": 7887, " spanyol</w>": 7888, "ation:</w>": 7889, " tíz": 7890, "atlanul</w>": 7891, " munkahely": 7892, " tartalmazó</w>": 7893, " Inc": 7894, " meztelen</w>": 7895, " Congress</w>": 7896, " kid": 7897, " lehetnek</w>": 7898, "ired</w>": 7899, " fu": 7900, " betegek</w>": 7901, "ery.</w>": 7902, " About</w>": 7903, " jövő": 7904, " break": 7905, " dom": 7906, " mutatja</w>": 7907, " közösen</w>": 7908, " fertőzés": 7909, " enter</w>": 7910, "land,</w>": 7911, " Any": 7912, " köny": 7913, " magn": 7914, " veszt": 7915, " felmér": 7916, " aláír": 7917, " plant": 7918, "tes</w>": 7919, " shr": 7920, "unkban</w>": 7921, " nélkül,</w>": 7922, " Tim": 7923, " hamar</w>": 7924, "fal": 7925, " electricity</w>": 7926, " km</w>": 7927, " regarding</w>": 7928, " oldalán</w>": 7929, "ture</w>": 7930, "ólag</w>": 7931, " előzetes</w>": 7932, " experienced</w>": 7933, " communic": 7934, " onto</w>": 7935, " Szem": 7936, " híres</w>": 7937, " Thus,</w>": 7938, "esed": 7939, " roh": 7940, "icity</w>": 7941, "osak</w>": 7942, " tudtam</w>": 7943, "ac</w>": 7944, " átl": 7945, " fak": 7946, "one.</w>": 7947, "ership</w>": 7948, " ribanc</w>": 7949, " részletes</w>": 7950, " háttér": 7951, "eo": 7952, " legjobb": 7953, " problémák</w>": 7954, "e).</w>": 7955, "rész": 7956, " clear": 7957, " felnott</w>": 7958, " hétvég": 7959, " működik</w>": 7960, "gl": 7961, " hatására</w>": 7962, " rész</w>": 7963, " kötet": 7964, " igaz</w>": 7965, "szk": 7966, " vidék": 7967, " cav": 7968, " jelenlét": 7969, " évente</w>": 7970, " csillag": 7971, " gal": 7972, "ökö": 7973, "ution</w>": 7974, " vele,</w>": 7975, " vigy": 7976, " begins</w>": 7977, " krónikus</w>": 7978, " lesson</w>": 7979, " mikro": 7980, " Stud": 7981, "inn": 7982, " társadalom</w>": 7983, " canc": 7984, " Proc": 7985, " (3": 7986, " fall": 7987, " flood": 7988, " Vég": 7989, " teszik</w>": 7990, "ood": 7991, " pas": 7992, " pozíció": 7993, "keres": 7994, " artic": 7995, " ellenőriz": 7996, " Bro": 7997, " legyen.</w>": 7998, " encourage</w>": 7999, " step": 8000, " Bab": 8001, "letes</w>": 8002, "be": 8003, "fokú</w>": 8004, " town</w>": 8005, " water": 8006, " csúcs": 8007, "ren": 8008, "aft</w>": 8009, " bevon": 8010, " Ferenc": 8011, "iation</w>": 8012, " hét": 8013, " unf": 8014, " diagn": 8015, " fol": 8016, " win": 8017, " second": 8018, "ez,</w>": 8019, " thr": 8020, " gyerm": 8021, " liquid</w>": 8022, "lik</w>": 8023, "ani": 8024, " internet</w>": 8025, " emotional</w>": 8026, " között": 8027, " saf": 8028, " olcs": 8029, " helping</w>": 8030, " talált": 8031, " mindenkinek</w>": 8032, "árok": 8033, " tö": 8034, "astic</w>": 8035, "állítás</w>": 8036, " eszköz</w>": 8037, " megfel": 8038, " swe": 8039, " batt": 8040, " networ": 8041, "umm": 8042, " judg": 8043, " measured</w>": 8044, " százalékos</w>": 8045, "tig": 8046, " Ben": 8047, " fertőz": 8048, " krém": 8049, " Szék": 8050, "ms</w>": 8051, " 2010.</w>": 8052, "ops</w>": 8053, " Fi": 8054, "TÉ": 8055, " 2000</w>": 8056, " át,</w>": 8057, " details</w>": 8058, "oha</w>": 8059, " ball": 8060, " élt": 8061, " előad": 8062, " recorded</w>": 8063, " Can</w>": 8064, " Szex": 8065, " tökéletesen</w>": 8066, "One</w>": 8067, " 4.": 8068, " rare</w>": 8069, " volume</w>": 8070, "ségben</w>": 8071, " pump": 8072, " akart": 8073, " engine": 8074, " Hely": 8075, "zat</w>": 8076, "ével.</w>": 8077, " jelentette</w>": 8078, " typical</w>": 8079, " bir": 8080, " itt": 8081, " mir": 8082, " Michael</w>": 8083, " általa</w>": 8084, " feltölt": 8085, "icated</w>": 8086, " bot": 8087, "ern</w>": 8088, " költségvet": 8089, " blue</w>": 8090, " alakult</w>": 8091, "atlan": 8092, "ki": 8093, " évre</w>": 8094, " user</w>": 8095, " decided</w>": 8096, "inger</w>": 8097, "ack,</w>": 8098, " etc": 8099, " combined</w>": 8100, "uit</w>": 8101, " Il": 8102, " proposed</w>": 8103, " professor</w>": 8104, " napos</w>": 8105, " wr": 8106, " tun": 8107, "lőd": 8108, " Ezután</w>": 8109, " them": 8110, " biztonságos</w>": 8111, " régi": 8112, " történet</w>": 8113, "idg": 8114, " ellenőrz": 8115, "ont,</w>": 8116, "ority</w>": 8117, " Oper": 8118, " helyes</w>": 8119, " Ugyanakkor</w>": 8120, "elhető</w>": 8121, " 23</w>": 8122, " official</w>": 8123, "áni</w>": 8124, " AZ</w>": 8125, " »</w>": 8126, " record": 8127, " kinds</w>": 8128, " Form": 8129, "ékony</w>": 8130, " Pacific</w>": 8131, "onális</w>": 8132, " 12.</w>": 8133, " jut</w>": 8134, " Such</w>": 8135, "reg": 8136, " jellegű</w>": 8137, " kezdemény": 8138, " CO": 8139, "ásár": 8140, " today.</w>": 8141, " városi</w>": 8142, " sír": 8143, " függetlenül</w>": 8144, " szintű</w>": 8145, "avi": 8146, " calc": 8147, " szerepe</w>": 8148, "si</w>": 8149, " woman</w>": 8150, " disorder</w>": 8151, " javas": 8152, " nálunk</w>": 8153, "sen</w>": 8154, "jav": 8155, " Gi": 8156, " várja</w>": 8157, " 400</w>": 8158, " Jud": 8159, " szár": 8160, "ous,</w>": 8161, " gáz": 8162, " faj": 8163, " marine</w>": 8164, "ehet": 8165, "ill,</w>": 8166, " örül": 8167, "uch": 8168, " transm": 8169, "odott</w>": 8170, " elő,</w>": 8171, " Vis": 8172, " showing</w>": 8173, " experim": 8174, " tartozik</w>": 8175, "lam": 8176, " storage</w>": 8177, "truc": 8178, " baby</w>": 8179, " egyeztet": 8180, " betart": 8181, " fung": 8182, " tün": 8183, "ancia</w>": 8184, " fib": 8185, " mindennap": 8186, " Vál": 8187, "mond": 8188, " munkavállal": 8189, "észek</w>": 8190, " resource</w>": 8191, " answ": 8192, " gro": 8193, " mol": 8194, " depress": 8195, " present": 8196, "nök</w>": 8197, " Food</w>": 8198, "inf": 8199, "szó</w>": 8200, "ery,</w>": 8201, " happens</w>": 8202, "5%</w>": 8203, " karakter": 8204, " egyértelműen</w>": 8205, " God": 8206, "60</w>": 8207, " earth</w>": 8208, "kezés</w>": 8209, " expect": 8210, " fast</w>": 8211, " Pál</w>": 8212, " Henry</w>": 8213, "erate</w>": 8214, " So,</w>": 8215, " éjszak": 8216, "’ll</w>": 8217, " academic</w>": 8218, " progress</w>": 8219, " étkez": 8220, "orok</w>": 8221, " style</w>": 8222, "ices.</w>": 8223, " körülmény": 8224, "itude</w>": 8225, " téli</w>": 8226, " month": 8227, " résztvev": 8228, " abból</w>": 8229, "uck": 8230, "ef</w>": 8231, " esetekben</w>": 8232, " benef": 8233, " nor</w>": 8234, "s’</w>": 8235, " célja,</w>": 8236, " price</w>": 8237, "rown</w>": 8238, " Mi": 8239, " noted</w>": 8240, "ubl": 8241, "atur": 8242, " feltétlenül</w>": 8243, " oc": 8244, " 11.</w>": 8245, " százalékkal</w>": 8246, " jön": 8247, "Most</w>": 8248, " pig": 8249, " Learning</w>": 8250, " prem": 8251, " gyakori</w>": 8252, "ázs": 8253, " attr": 8254, "ján": 8255, " infected</w>": 8256, "atták</w>": 8257, " üveg": 8258, " torn": 8259, " i</w>": 8260, " 2018.</w>": 8261, " Medical</w>": 8262, " said,</w>": 8263, "okban,</w>": 8264, " autó</w>": 8265, " Kon": 8266, " szervezetek</w>": 8267, "ersh": 8268, " ven": 8269, " Lajos</w>": 8270, " army</w>": 8271, " habit": 8272, "ads</w>": 8273, "p.</w>": 8274, " neur": 8275, "ament": 8276, " sorozat</w>": 8277, " adm": 8278, " fogalm": 8279, " amiben</w>": 8280, "ádi</w>": 8281, " choice</w>": 8282, " réteg": 8283, " választ</w>": 8284, " conservation</w>": 8285, " bomb": 8286, "iget": 8287, " kód": 8288, "ajn": 8289, " can’t</w>": 8290, "com": 8291, " némi</w>": 8292, " szerelm": 8293, " rögzít": 8294, " magad": 8295, " megszüntet": 8296, " forró</w>": 8297, " tudta</w>": 8298, " rajta</w>": 8299, " items</w>": 8300, " cycle</w>": 8301, " (k": 8302, " jelenik</w>": 8303, " finally</w>": 8304, " Publ": 8305, "yd": 8306, " társkeres": 8307, " decad": 8308, " lek": 8309, " sound": 8310, "ince</w>": 8311, "ipari</w>": 8312, " előford": 8313, " warm": 8314, " problems.</w>": 8315, " Univers": 8316, " megjegy": 8317, " Fő": 8318, " external</w>": 8319, " mindennapi</w>": 8320, "edly</w>": 8321, " ax": 8322, " May": 8323, "áns": 8324, "ából,</w>": 8325, "alommal</w>": 8326, " inn": 8327, "aud": 8328, "föld": 8329, "ists,</w>": 8330, " experiences</w>": 8331, "edék": 8332, " rajong": 8333, " says.</w>": 8334, " operating</w>": 8335, "ektív</w>": 8336, " ról": 8337, "itional</w>": 8338, " hozzá.</w>": 8339, "-re</w>": 8340, "etés</w>": 8341, "les.</w>": 8342, " Nyug": 8343, "ld": 8344, " Latin</w>": 8345, " habitat</w>": 8346, "isták</w>": 8347, " szal": 8348, "ging</w>": 8349, " ellen,</w>": 8350, "jék</w>": 8351, " Ekkor</w>": 8352, " connection</w>": 8353, "ánt</w>": 8354, "ációk</w>": 8355, "etők</w>": 8356, " tényez": 8357, "CI": 8358, "Ad": 8359, "él,</w>": 8360, " nucl": 8361, " át.</w>": 8362, " biztosítás": 8363, " várt": 8364, " személyiség": 8365, " konkrét</w>": 8366, "C,</w>": 8367, "ak:</w>": 8368, " repl": 8369, "iew": 8370, " idegen</w>": 8371, "7).</w>": 8372, " mit": 8373, " Nemzetközi</w>": 8374, " bán": 8375, " Néhány</w>": 8376, "ages,</w>": 8377, "gyűlés</w>": 8378, " good": 8379, "És</w>": 8380, " interested</w>": 8381, " stars</w>": 8382, " Meg</w>": 8383, " rest": 8384, "6).</w>": 8385, " Be</w>": 8386, " represents</w>": 8387, "bs</w>": 8388, " reports</w>": 8389, " compan": 8390, " ettől</w>": 8391, " with": 8392, " consumption</w>": 8393, " detailed</w>": 8394, " szerkez": 8395, " menü": 8396, " felépít": 8397, "vas": 8398, "uth": 8399, " Air</w>": 8400, "S.</w>": 8401, " befog": 8402, "a!</w>": 8403, " South": 8404, " concepts</w>": 8405, " Sub": 8406, " Chr": 8407, " here.</w>": 8408, "une</w>": 8409, " hundreds</w>": 8410, " cut": 8411, " looks</w>": 8412, "árom": 8413, " table</w>": 8414, "ape</w>": 8415, " nem.</w>": 8416, " press": 8417, " hivatal": 8418, "ney</w>": 8419, " Tam": 8420, " regény": 8421, " méter": 8422, " során.</w>": 8423, " infec": 8424, "amin": 8425, " intended</w>": 8426, " tas": 8427, " removed</w>": 8428, " navig": 8429, "eiben</w>": 8430, " greatest</w>": 8431, " tenn": 8432, " consequ": 8433, "ants,</w>": 8434, " Term": 8435, " Tri": 8436, " strength</w>": 8437, "atokat</w>": 8438, " hőmérséklet": 8439, "áért</w>": 8440, " rögtön</w>": 8441, " progr": 8442, " units</w>": 8443, " csökk": 8444, " oktatási</w>": 8445, "mag": 8446, "emic</w>": 8447, "anch": 8448, "et!</w>": 8449, " eml": 8450, " (L": 8451, " meant</w>": 8452, " kerülnek</w>": 8453, "étek</w>": 8454, " son</w>": 8455, " notes</w>": 8456, " elég": 8457, "Pro": 8458, " shared</w>": 8459, " point": 8460, " adop": 8461, " planning</w>": 8462, " hundred</w>": 8463, " occurred</w>": 8464, " módszer</w>": 8465, " szerződés": 8466, " vége</w>": 8467, " cells.</w>": 8468, " tum": 8469, " users</w>": 8470, " slightly</w>": 8471, " food": 8472, "vény</w>": 8473, " speech</w>": 8474, " Kovács</w>": 8475, "aik</w>": 8476, "De</w>": 8477, "áros": 8478, " cognitive</w>": 8479, " gyakorlati</w>": 8480, " bizony</w>": 8481, "áson</w>": 8482, " Middle</w>": 8483, " kilométer": 8484, " territ": 8485, " meccs": 8486, " űr": 8487, " G.</w>": 8488, "ból.</w>": 8489, " constant</w>": 8490, " kétség": 8491, " állnak</w>": 8492, "5).</w>": 8493, "ítását</w>": 8494, "ilt": 8495, " várható</w>": 8496, "ros</w>": 8497, " számított</w>": 8498, " collected</w>": 8499, " erősen</w>": 8500, " despite</w>": 8501, " vol": 8502, " tip": 8503, " website</w>": 8504, " (in</w>": 8505, " liber": 8506, " jogosult</w>": 8507, "ores</w>": 8508, " kiderült,</w>": 8509, " bacter": 8510, " 2,</w>": 8511, " On": 8512, " hem": 8513, " improved</w>": 8514, " írta</w>": 8515, "3)</w>": 8516, " programok</w>": 8517, " rek": 8518, " War": 8519, "ására.</w>": 8520, " elő.</w>": 8521, " generation</w>": 8522, " intern": 8523, " visible</w>": 8524, " induc": 8525, " cél</w>": 8526, " respect</w>": 8527, " altern": 8528, " atmosphere</w>": 8529, " lakosság</w>": 8530, "elést</w>": 8531, " fa": 8532, " izgalmas</w>": 8533, " Mer": 8534, " Jews</w>": 8535, " felelősség": 8536, " though": 8537, " koll": 8538, " vonal": 8539, " Unió</w>": 8540, " –,</w>": 8541, "Un": 8542, " spent</w>": 8543, "itor</w>": 8544, "ették,</w>": 8545, " investig": 8546, " Oc": 8547, " increasingly</w>": 8548, " sokáig</w>": 8549, "höz</w>": 8550, " Emellett</w>": 8551, " Bud": 8552, " Can": 8553, " pop": 8554, " díj</w>": 8555, " wood</w>": 8556, " Kriszt": 8557, " portion</w>": 8558, "iek</w>": 8559, "íció": 8560, " chang": 8561, " nincsenek</w>": 8562, "ER</w>": 8563, " kérdés,</w>": 8564, " card": 8565, "ortun": 8566, " accept": 8567, " fundamental</w>": 8568, " graf": 8569, "oid": 8570, "ive.</w>": 8571, " ülés": 8572, "rid</w>": 8573, " journ": 8574, "eth</w>": 8575, " ident": 8576, "-t</w>": 8577, " relevant</w>": 8578, " befolyásol": 8579, "izes</w>": 8580, " hátter": 8581, "agn": 8582, " mostani</w>": 8583, " Heal": 8584, "ósz": 8585, " lenni</w>": 8586, " lépés": 8587, " health.</w>": 8588, " tevékenység</w>": 8589, " sincs</w>": 8590, " ber": 8591, " dolog": 8592, " kapcsolatot</w>": 8593, " Are</w>": 8594, " case,</w>": 8595, " Lake</w>": 8596, "tering</w>": 8597, "tól,</w>": 8598, " sort</w>": 8599, " mik": 8600, "rat": 8601, "et:</w>": 8602, " felhasználó</w>": 8603, " London</w>": 8604, " played</w>": 8605, " összefügg": 8606, " kár": 8607, " kötött</w>": 8608, "4-ben</w>": 8609, " cond": 8610, " LE": 8611, " charge</w>": 8612, " szopas</w>": 8613, "aster</w>": 8614, " hangz": 8615, " hyd": 8616, " suggested</w>": 8617, " mother</w>": 8618, " Alapítvány</w>": 8619, "ology.</w>": 8620, " rejtett</w>": 8621, " alkalmazott</w>": 8622, " fejl": 8623, " slow</w>": 8624, " my": 8625, "ared</w>": 8626, " vital</w>": 8627, " controlled</w>": 8628, " bord": 8629, " isz": 8630, " whe": 8631, " közl": 8632, "bal</w>": 8633, " szövet": 8634, "ettem,</w>": 8635, " construc": 8636, " advantage</w>": 8637, " context</w>": 8638, " Russ": 8639, " észak": 8640, "iel": 8641, " spring</w>": 8642, " megerős": 8643, " element</w>": 8644, "ness.</w>": 8645, "áról,</w>": 8646, "reas": 8647, " mell</w>": 8648, "agyar": 8649, " you.</w>": 8650, " kivétel": 8651, "ographic</w>": 8652, "8).</w>": 8653, " challenges</w>": 8654, " civil": 8655, " Lond": 8656, " (G": 8657, " megl": 8658, " mező": 8659, "ift</w>": 8660, " amint</w>": 8661, "eszi</w>": 8662, " Miklós</w>": 8663, " mentioned</w>": 8664, "ences,</w>": 8665, " vállalat</w>": 8666, "osnak</w>": 8667, " Disc": 8668, "uális</w>": 8669, "en!</w>": 8670, " whom</w>": 8671, " assessment</w>": 8672, " sci": 8673, "eivel</w>": 8674, " 3-": 8675, " environment": 8676, " phase</w>": 8677, "1).</w>": 8678, " Prot": 8679, " hozzát": 8680, " vaccine</w>": 8681, " citiz": 8682, " verzi": 8683, "ons.</w>": 8684, " kijelent": 8685, " olyan": 8686, "erson</w>": 8687, " States,</w>": 8688, "ates,</w>": 8689, " Public</w>": 8690, " fűt": 8691, "ei.</w>": 8692, " nappal</w>": 8693, " task</w>": 8694, " elveszt": 8695, "aur": 8696, " exist</w>": 8697, " vary</w>": 8698, "elik</w>": 8699, " draw</w>": 8700, "eous</w>": 8701, " potentially</w>": 8702, " Vide": 8703, " folytatás": 8704, " keresztény</w>": 8705, " tested</w>": 8706, "ásai</w>": 8707, " táplálkoz": 8708, " információk": 8709, " Mod": 8710, " limit</w>": 8711, " charg": 8712, " My</w>": 8713, " auth": 8714, " török</w>": 8715, "ention</w>": 8716, "ennyire</w>": 8717, " (A</w>": 8718, " megtörtén": 8719, " perform": 8720, "orral</w>": 8721, " focused</w>": 8722, " bejár": 8723, " species.</w>": 8724, " fasz": 8725, " dolog,</w>": 8726, " tábor": 8727, "le": 8728, " leaders</w>": 8729, "On</w>": 8730, " kárty": 8731, " szabályok</w>": 8732, "nál": 8733, " vezetője</w>": 8734, " closely</w>": 8735, " discussion</w>": 8736, "ünkben</w>": 8737, "szám</w>": 8738, " Kín": 8739, "ához,</w>": 8740, " nemi</w>": 8741, " Mor": 8742, "orted</w>": 8743, " keres</w>": 8744, " szüksége</w>": 8745, " producing</w>": 8746, " effici": 8747, "yt": 8748, " feature</w>": 8749, " discovery</w>": 8750, " tend": 8751, " way.</w>": 8752, " sustainable</w>": 8753, " megállapod": 8754, " köszönhető": 8755, "enni": 8756, " népszerű</w>": 8757, " felir": 8758, " Army</w>": 8759, " hull": 8760, "icate</w>": 8761, "esses</w>": 8762, " capable</w>": 8763, " Go": 8764, " organization</w>": 8765, "alism</w>": 8766, " star</w>": 8767, " meth": 8768, " Eth": 8769, " töm": 8770, " fluid</w>": 8771, " White</w>": 8772, " store</w>": 8773, " 28</w>": 8774, " utcai</w>": 8775, " platform": 8776, " mozgás": 8777, " gól": 8778, " rapid</w>": 8779, "ítési</w>": 8780, "ters.</w>": 8781, "tem,</w>": 8782, " States.</w>": 8783, " mac": 8784, "4).</w>": 8785, "vétel": 8786, " principles</w>": 8787, "akon</w>": 8788, "roduc": 8789, "Minden</w>": 8790, " impacts</w>": 8791, "oral</w>": 8792, "2).</w>": 8793, " pron": 8794, " math</w>": 8795, " leb": 8796, "-w": 8797, " recognized</w>": 8798, " baszás</w>": 8799, "aiban</w>": 8800, " Sajnos</w>": 8801, " lanya</w>": 8802, " challeng": 8803, " island</w>": 8804, "tatási</w>": 8805, "arb": 8806, "eknek,</w>": 8807, " authors</w>": 8808, " efficient</w>": 8809, "ellenes</w>": 8810, "es?</w>": 8811, "akt": 8812, " shap": 8813, " trac": 8814, " ready</w>": 8815, " exerc": 8816, " practical</w>": 8817, " produces</w>": 8818, " nyolc": 8819, " Church</w>": 8820, "ite,</w>": 8821, "ary.</w>": 8822, " plans</w>": 8823, "But</w>": 8824, " tudjuk,</w>": 8825, " flow": 8826, "ulni</w>": 8827, " creation</w>": 8828, "ettek,</w>": 8829, " keletkez": 8830, " Paul</w>": 8831, " 2011</w>": 8832, " (az</w>": 8833, " amiket</w>": 8834, " propos": 8835, " nyíl": 8836, " way,</w>": 8837, " month</w>": 8838, "eted</w>": 8839, " élete</w>": 8840, " maguk</w>": 8841, "ilyen</w>": 8842, " continues</w>": 8843, " stimul": 8844, " Wal": 8845, " pieces</w>": 8846, "By</w>": 8847, " legszebb</w>": 8848, " töltött</w>": 8849, " elegendő</w>": 8850, " 15.</w>": 8851, "etary</w>": 8852, " mouth</w>": 8853, " Canada</w>": 8854, " irrit": 8855, " ipari</w>": 8856, " (3)</w>": 8857, "0-ben</w>": 8858, " Hom": 8859, " Miután</w>": 8860, " phys": 8861, " sev": 8862, "íro": 8863, " hear</w>": 8864, " massive</w>": 8865, " c.</w>": 8866, "da</w>": 8867, " férfiak": 8868, " átlagos</w>": 8869, " szerint": 8870, "ayed</w>": 8871, "iew</w>": 8872, "edia</w>": 8873, " records</w>": 8874, " bármikor</w>": 8875, " drive</w>": 8876, " vastag": 8877, "ént</w>": 8878, "issz": 8879, " mellett.</w>": 8880, " host</w>": 8881, "..</w>": 8882, "asc": 8883, " AL": 8884, " tizen": 8885, " vibr": 8886, " Központ</w>": 8887, " 100": 8888, " world": 8889, " dog": 8890, " Old</w>": 8891, " bem": 8892, " component</w>": 8893, " vision</w>": 8894, " normally</w>": 8895, "égy</w>": 8896, " ideális</w>": 8897, " toler": 8898, " one-": 8899, "akat,</w>": 8900, " feltételek</w>": 8901, " church</w>": 8902, " bíróság</w>": 8903, " aszt": 8904, "urs": 8905, "onyi</w>": 8906, "iről</w>": 8907, " Imp": 8908, " som": 8909, "els.</w>": 8910, "tam.</w>": 8911, " che": 8912, " országban</w>": 8913, " helyzetben</w>": 8914, " expression</w>": 8915, " X</w>": 8916, " hitt": 8917, " Egyet": 8918, "unkat</w>": 8919, " Hel": 8920, " Andr": 8921, "rel": 8922, "ug</w>": 8923, " Arab": 8924, "őknek</w>": 8925, " she": 8926, " feeling</w>": 8927, "ibility</w>": 8928, " körben</w>": 8929, "tal</w>": 8930, "aival</w>": 8931, " ly": 8932, " hiába</w>": 8933, " népi</w>": 8934, " extinc": 8935, "asági</w>": 8936, " neighb": 8937, " raised</w>": 8938, " NASA</w>": 8939, " figy": 8940, " returned</w>": 8941, " 45</w>": 8942, " valószínű": 8943, " send</w>": 8944, "izet": 8945, " Make</w>": 8946, " consider": 8947, "éről.</w>": 8948, " esküv": 8949, " bales": 8950, " nehez": 8951, " nyilvános</w>": 8952, "VI": 8953, " institu": 8954, " tulajdonos": 8955, " Ver": 8956, " Government</w>": 8957, "ours</w>": 8958, " except</w>": 8959, " gazdálkod": 8960, " taught</w>": 8961, "aph</w>": 8962, "||": 8963, " y</w>": 8964, "mp": 8965, " play": 8966, " eggs</w>": 8967, " színpad": 8968, " fat</w>": 8969, " marg": 8970, " research": 8971, " til": 8972, "aik": 8973, "eum": 8974, " children,</w>": 8975, "ülés</w>": 8976, " Lát": 8977, "adik</w>": 8978, "enti</w>": 8979, "OK</w>": 8980, " information.</w>": 8981, "hi": 8982, " grade</w>": 8983, " Also,</w>": 8984, "elték</w>": 8985, "ekkel.</w>": 8986, " Vir": 8987, " kemény": 8988, "ber</w>": 8989, "árk": 8990, " definition</w>": 8991, " struct": 8992, " eastern</w>": 8993, " ri": 8994, " Soviet</w>": 8995, "sz.</w>": 8996, " happen</w>": 8997, " idős</w>": 8998, " Sm": 8999, "oltak</w>": 9000, " vétel": 9001, " róla,</w>": 9002, " áld": 9003, " nyújtott</w>": 9004, " költöz": 9005, "aged</w>": 9006, " Ingyenes</w>": 9007, "ekre,</w>": 9008, " közösség</w>": 9009, " 27</w>": 9010, "ötte</w>": 9011, "pos": 9012, " Először</w>": 9013, " seri": 9014, " secondary</w>": 9015, "ásáról</w>": 9016, " processing</w>": 9017, " akkor,</w>": 9018, " challenge</w>": 9019, "tle</w>": 9020, "ova</w>": 9021, "ried</w>": 9022, " display</w>": 9023, " child’s</w>": 9024, "9).</w>": 9025, "-as</w>": 9026, "jait</w>": 9027, "ség.</w>": 9028, "gazdasági</w>": 9029, " hő": 9030, " finanszíroz": 9031, " aktiv": 9032, " Ann": 9033, " establish</w>": 9034, " méretű</w>": 9035, " Mikor</w>": 9036, " megoldást</w>": 9037, " topic</w>": 9038, " közös": 9039, " manage</w>": 9040, " valamit</w>": 9041, "oll</w>": 9042, "Szer": 9043, "szeres</w>": 9044, "ouse</w>": 9045, "ezze</w>": 9046, " UN": 9047, " mission</w>": 9048, " K</w>": 9049, " warm</w>": 9050, "3).</w>": 9051, " masz": 9052, "ub</w>": 9053, " sötét": 9054, " Rész": 9055, " százaléka</w>": 9056, "apping</w>": 9057, "ive,</w>": 9058, " N</w>": 9059, " méter</w>": 9060, " Hal": 9061, " blood": 9062, "olási</w>": 9063, " kialakulás": 9064, " R</w>": 9065, "aság</w>": 9066, "ob</w>": 9067, " Ven": 9068, "elled</w>": 9069, " kellem": 9070, " car</w>": 9071, " sounds</w>": 9072, "ird": 9073, " Over</w>": 9074, " conditions.</w>": 9075, " condition": 9076, " hop": 9077, " Ren": 9078, "amer": 9079, " perfect</w>": 9080, " Council</w>": 9081, " csú": 9082, " purs": 9083, " egyet": 9084, "200": 9085, " follow": 9086, " tiny</w>": 9087, "ime</w>": 9088, " segíti</w>": 9089, " Association</w>": 9090, " kivált": 9091, " színes</w>": 9092, "ON</w>": 9093, " (p": 9094, "asm": 9095, "au</w>": 9096, "ítottak</w>": 9097, "olic</w>": 9098, " solid</w>": 9099, " Ec": 9100, " (t": 9101, " decrease</w>": 9102, " studied</w>": 9103, "ágy": 9104, "osabb": 9105, " Néz": 9106, " meghatározó</w>": 9107, " bekezd": 9108, " rendkívüli</w>": 9109, "ebbi</w>": 9110, "ogn": 9111, " mist": 9112, "ades</w>": 9113, " economy</w>": 9114, " please</w>": 9115, " kór": 9116, " javasol": 9117, " jöved": 9118, " T.</w>": 9119, " megalap": 9120, "essége</w>": 9121, " looked</w>": 9122, " poszt": 9123, " mégsem</w>": 9124, " diét": 9125, " Intern": 9126, " vitamin": 9127, " negyedik</w>": 9128, " Ág": 9129, " heti</w>": 9130, " stret": 9131, " End": 9132, " időszak</w>": 9133, " ahhoz</w>": 9134, " háború</w>": 9135, " Igaz": 9136, " keeping</w>": 9137, " Végül</w>": 9138, " kifizet": 9139, " Lab": 9140, " tom": 9141, " 30-": 9142, " délután</w>": 9143, " tort": 9144, " advis": 9145, " reproduc": 9146, " ábráz": 9147, " ára</w>": 9148, " high-": 9149, " evalu": 9150, " country.</w>": 9151, "éli</w>": 9152, "ender</w>": 9153, "ward": 9154, " térd": 9155, " kg</w>": 9156, " fossil</w>": 9157, " vannak.</w>": 9158, " betölt": 9159, " Wat": 9160, "ával": 9161, "acting</w>": 9162, " adapt": 9163, " bajnok": 9164, " Pedig</w>": 9165, " megfogalmaz": 9166, " App": 9167, " V</w>": 9168, " (J": 9169, " nyitott</w>": 9170, "anyagok</w>": 9171, " modern": 9172, " márk": 9173, " encoun": 9174, "esti</w>": 9175, "ik:</w>": 9176, "e”</w>": 9177, "-tól</w>": 9178, "b.</w>": 9179, "enh": 9180, "ks,</w>": 9181, " fesz": 9182, " csökkenti</w>": 9183, " jövőben</w>": 9184, " meglévő</w>": 9185, "telenül</w>": 9186, " Jesus</w>": 9187, "eltet": 9188, "ements,</w>": 9189, " seeds</w>": 9190, "anda</w>": 9191, " ősz": 9192, " Figure</w>": 9193, " ill.</w>": 9194, " magát.</w>": 9195, "umok</w>": 9196, " isn’t</w>": 9197, " laz": 9198, " Sam": 9199, " Southern</w>": 9200, " sampl": 9201, " pen": 9202, " szomb": 9203, " érkező</w>": 9204, "red</w>": 9205, " west</w>": 9206, " kor</w>": 9207, " Germany</w>": 9208, "ild</w>": 9209, " 19.</w>": 9210, " possible.</w>": 9211, " obs": 9212, " Development</w>": 9213, " velünk</w>": 9214, " assess": 9215, "'ll</w>": 9216, "tif": 9217, " 26</w>": 9218, " Köszön": 9219, " claim</w>": 9220, " III.</w>": 9221, " vast</w>": 9222, " döntés": 9223, " forgalmaz": 9224, " effectively</w>": 9225, "abil": 9226, "ője,</w>": 9227, " use.</w>": 9228, " fizetési</w>": 9229, " generate</w>": 9230, " biztosít</w>": 9231, " Braz": 9232, "onban</w>": 9233, " drinking</w>": 9234, " technologies</w>": 9235, " rain": 9236, " mondjuk</w>": 9237, " W.</w>": 9238, " court</w>": 9239, " végső</w>": 9240, " manip": 9241, " (198": 9242, "u,</w>": 9243, "ibe</w>": 9244, "nie,</w>": 9245, "a's</w>": 9246, " System</w>": 9247, "12</w>": 9248, " szét": 9249, " leaving</w>": 9250, "irk": 9251, " NA": 9252, " College</w>": 9253, " csaj</w>": 9254, " profil": 9255, "ekt</w>": 9256, "illing</w>": 9257, "n’t</w>": 9258, " tábl": 9259, " reduction</w>": 9260, " magyarok</w>": 9261, " böngész": 9262, "fejleszt": 9263, " heard</w>": 9264, " felkészül": 9265, " draw": 9266, " aid</w>": 9267, " origin": 9268, "ret": 9269, " emellett</w>": 9270, "on:</w>": 9271, "eksz": 9272, "lands</w>": 9273, " adni</w>": 9274, " keny": 9275, " adó</w>": 9276, " Pet": 9277, " működtet": 9278, " retro</w>": 9279, " 2015</w>": 9280, " észl": 9281, " char": 9282, " válogat": 9283, " CS": 9284, " memb": 9285, " bak": 9286, " körny": 9287, "lin</w>": 9288, " nélkül": 9289, " rail": 9290, " csodálatos</w>": 9291, " szeretné</w>": 9292, "tiszt": 9293, " obtained</w>": 9294, "ucc": 9295, "rig": 9296, "bi</w>": 9297, "igr": 9298, "imin": 9299, " megegy": 9300, " hisz</w>": 9301, "ts.</w>": 9302, " offered</w>": 9303, "eans</w>": 9304, "ányok</w>": 9305, " rá.</w>": 9306, "ca</w>": 9307, " molecules</w>": 9308, " samples</w>": 9309, "PA</w>": 9310, " úgy": 9311, " rapidly</w>": 9312, " Indi": 9313, " ipar": 9314, "ania</w>": 9315, " hús": 9316, "rive</w>": 9317, " refer</w>": 9318, " forintos</w>": 9319, " körében</w>": 9320, " fen": 9321, " fajt": 9322, " func": 9323, " ju": 9324, " more.</w>": 9325, " él</w>": 9326, " ah": 9327, " szabadon</w>": 9328, "EG": 9329, "opl": 9330, " road</w>": 9331, " tartalmaz</w>": 9332, "zen</w>": 9333, " prepared</w>": 9334, " kedvező</w>": 9335, " korább": 9336, " appeared</w>": 9337, " evolution</w>": 9338, "abilities</w>": 9339, " cred": 9340, " eléged": 9341, " forward</w>": 9342, " fat": 9343, " (és</w>": 9344, " lemez": 9345, " zsidó</w>": 9346, " out.</w>": 9347, " meeting</w>": 9348, "oknak,</w>": 9349, " setting</w>": 9350, " history.</w>": 9351, "encies</w>": 9352, " Ör": 9353, " Energy</w>": 9354, " species,</w>": 9355, "olf</w>": 9356, " introduc": 9357, " distinct</w>": 9358, " originally</w>": 9359, " szöv": 9360, "ere": 9361, " experi": 9362, " plusz</w>": 9363, "ines,</w>": 9364, " érzelm": 9365, "ezt</w>": 9366, " férj": 9367, " (D": 9368, " that’s</w>": 9369, "ődik</w>": 9370, " farmers</w>": 9371, " anyone</w>": 9372, " gondolt": 9373, " független</w>": 9374, "read": 9375, " 13.</w>": 9376, " pályázat</w>": 9377, " szoci": 9378, "istry</w>": 9379, " millions</w>": 9380, "éséhez.</w>": 9381, " Eff": 9382, " ismert": 9383, "ancy</w>": 9384, "ultural</w>": 9385, "ésé": 9386, "íz</w>": 9387, " messze</w>": 9388, " 2019.</w>": 9389, " describes</w>": 9390, " Native</w>": 9391, "ells</w>": 9392, " okozta</w>": 9393, " partner</w>": 9394, " EL": 9395, " feszült": 9396, " ellenőr": 9397, " Court</w>": 9398, " életmód": 9399, "aps</w>": 9400, " 50": 9401, " fun</w>": 9402, " stim": 9403, " Po": 9404, " Russian</w>": 9405, " plat": 9406, " Mel": 9407, "ilág": 9408, " házas": 9409, " saj": 9410, " breath": 9411, "ál.</w>": 9412, " (l": 9413, "ébb</w>": 9414, " Like</w>": 9415, " lib": 9416, "ext</w>": 9417, "ennek</w>": 9418, "ai.</w>": 9419, " dead</w>": 9420, " spend</w>": 9421, "e.”</w>": 9422, " relig": 9423, " nudista</w>": 9424, " Early</w>": 9425, " beszámol": 9426, " cultiv": 9427, "aid</w>": 9428, "ix": 9429, " recognize</w>": 9430, " alcohol</w>": 9431, " fields</w>": 9432, " gyűj": 9433, " pollution</w>": 9434, "űn": 9435, " eredet": 9436, " Kül": 9437, "ri</w>": 9438, " játékos</w>": 9439, "7)</w>": 9440, "ener": 9441, " 4-": 9442, "ony,</w>": 9443, " néz</w>": 9444, " negy": 9445, " Fontos</w>": 9446, "ments.</w>": 9447, "etting</w>": 9448, " child": 9449, " gas": 9450, " Ausztr": 9451, " nyolc</w>": 9452, " Life</w>": 9453, " Angl": 9454, " melyeket</w>": 9455, "An</w>": 9456, " confl": 9457, " crucial</w>": 9458, " Lib": 9459, " pattern": 9460, " glass</w>": 9461, "aim": 9462, " specifically</w>": 9463, " fertőzés</w>": 9464, "nia.</w>": 9465, " Ott": 9466, "elem,</w>": 9467, " befektet": 9468, " concentration</w>": 9469, " income</w>": 9470, " stored</w>": 9471, " 2-": 9472, "A)</w>": 9473, "écs": 9474, " Károly</w>": 9475, " játékos": 9476, " terj": 9477, " Museum</w>": 9478, " fit</w>": 9479, " Det": 9480, " Educ": 9481, "ard,</w>": 9482, " nyelv</w>": 9483, " kiem": 9484, " ismerked": 9485, " semmit</w>": 9486, " wit": 9487, " szün": 9488, " szellem": 9489, " Pan": 9490, " edz": 9491, " driv": 9492, " buk": 9493, " (h": 9494, "ökk": 9495, "írás</w>": 9496, " közelében</w>": 9497, " egyes": 9498, "inak</w>": 9499, "etry</w>": 9500, " geom": 9501, "szem": 9502, " dangerous</w>": 9503, " capit": 9504, " Hi": 9505, " közeli</w>": 9506, "te": 9507, "kép</w>": 9508, " dics": 9509, "ületek</w>": 9510, "ices,</w>": 9511, " famil": 9512, "usa</w>": 9513, " felt</w>": 9514, " alg": 9515, " 2016</w>": 9516, " 18.</w>": 9517, " melyben</w>": 9518, " herc": 9519, " si": 9520, " hydrogen</w>": 9521, " értelmében</w>": 9522, "okk": 9523, " seek</w>": 9524, " pun": 9525, "inth": 9526, " Data</w>": 9527, " igaz,</w>": 9528, " Iskola</w>": 9529, "ese,</w>": 9530, "burg": 9531, " forintot</w>": 9532, " battle</w>": 9533, "sük</w>": 9534, "ks.</w>": 9535, "jával</w>": 9536, " felelős": 9537, " fresh</w>": 9538, "erő</w>": 9539, " Dem": 9540, " Bor": 9541, "eml": 9542, " tried</w>": 9543, "mal</w>": 9544, " új,</w>": 9545, "They</w>": 9546, " alaposan</w>": 9547, " El</w>": 9548, " veszélyes</w>": 9549, " terhesség</w>": 9550, " észrev": 9551, "ókat,</w>": 9552, " sequ": 9553, "cc": 9554, " Budapesten</w>": 9555, " sleep": 9556, " ens": 9557, " okoz</w>": 9558, " pályázati</w>": 9559, "iac</w>": 9560, " excellent</w>": 9561, " remaining</w>": 9562, " Lat": 9563, " France</w>": 9564, " kutya</w>": 9565, "év</w>": 9566, " grown</w>": 9567, "met": 9568, " egyedülálló</w>": 9569, " games</w>": 9570, "őleg</w>": 9571, " 2014</w>": 9572, " mellékhat": 9573, " Merc": 9574, " fogják</w>": 9575, " indic": 9576, " yourself</w>": 9577, " ek": 9578, " faster</w>": 9579, " Typ": 9580, " mérkőzés": 9581, " kelet": 9582, " személyek</w>": 9583, " frag": 9584, "port</w>": 9585, "rag": 9586, "őként</w>": 9587, " experts</w>": 9588, " lemond": 9589, " képviselő</w>": 9590, " V.</w>": 9591, " 1/": 9592, " cm": 9593, " office</w>": 9594, " North": 9595, " szülők</w>": 9596, " Ráadásul</w>": 9597, " amat": 9598, " 1000</w>": 9599, " rögz": 9600, " elterjed": 9601, " Electr": 9602, " járt</w>": 9603, " adding</w>": 9604, " Arm": 9605, " pénzért</w>": 9606, "ore,</w>": 9607, " amúgy</w>": 9608, "ument": 9609, "itary</w>": 9610, " nagyobb": 9611, " kész</w>": 9612, " tou": 9613, " ></w>": 9614, " limit": 9615, " Just</w>": 9616, " látni</w>": 9617, " t</w>": 9618, " különb": 9619, " hel": 9620, ".1": 9621, "aves</w>": 9622, " rural</w>": 9623, "gy,</w>": 9624, "éh": 9625, " letters</w>": 9626, " (R": 9627, " későbbi</w>": 9628, " kezdett</w>": 9629, " stem</w>": 9630, "óta</w>": 9631, " található.</w>": 9632, "lap</w>": 9633, " reserv": 9634, " Franc": 9635, " af": 9636, " ezután</w>": 9637, " Jog": 9638, " információ</w>": 9639, " milk</w>": 9640, " input</w>": 9641, "time</w>": 9642, " rák": 9643, "éret</w>": 9644, " start": 9645, "orm</w>": 9646, " decisions</w>": 9647, " Tib": 9648, "-g": 9649, " proteins</w>": 9650, " AD": 9651, " MT": 9652, " stand</w>": 9653, "iskola</w>": 9654, "8)</w>": 9655, "alomb": 9656, " elküld": 9657, " Canadian</w>": 9658, " eth": 9659, " all,</w>": 9660, " Royal</w>": 9661, " Law": 9662, "ászati</w>": 9663, ".).</w>": 9664, " zsid": 9665, " freedom</w>": 9666, " Angel": 9667, " gruppen</w>": 9668, " development.</w>": 9669, " vak": 9670, " alakul</w>": 9671, "on’s</w>": 9672, " közölte</w>": 9673, " result,</w>": 9674, " Intéz": 9675, " kimond": 9676, " appear": 9677, " önt": 9678, " areas.</w>": 9679, "eztem</w>": 9680, " stb": 9681, "eztet": 9682, " Richard</w>": 9683, " Those</w>": 9684, " parancs": 9685, " Conc": 9686, "juk": 9687, " lap</w>": 9688, " pest": 9689, " extent</w>": 9690, " szállod": 9691, "enek": 9692, "élk": 9693, "onz": 9694, " érdem": 9695, " expos": 9696, "ogó</w>": 9697, " konferenci": 9698, "ább": 9699, " Pres": 9700, " wall</w>": 9701, " derived</w>": 9702, " vállalkozás</w>": 9703, "tion:</w>": 9704, "so</w>": 9705, " Class": 9706, " áldoz": 9707, " scr": 9708, " 2009.</w>": 9709, "edd</w>": 9710, " vagy,</w>": 9711, " sötét</w>": 9712, " szakemberek</w>": 9713, "ube</w>": 9714, "eed": 9715, " alapvetően</w>": 9716, " kín": 9717, " üt": 9718, " ismerős": 9719, " spac": 9720, " 183": 9721, " accurate</w>": 9722, " infections</w>": 9723, " hozzá,</w>": 9724, " mindkett": 9725, " dioxide</w>": 9726, " XI": 9727, " vallás": 9728, " bird</w>": 9729, " staff</w>": 9730, " fűz": 9731, "’ve</w>": 9732, "iment</w>": 9733, " különös</w>": 9734, " megőr": 9735, " talaj": 9736, " áb": 9737, "eged": 9738, "form</w>": 9739, "aszn": 9740, "nie.</w>": 9741, " 19th</w>": 9742, "ájában</w>": 9743, " monitoring</w>": 9744, "IS</w>": 9745, " centur": 9746, " Before</w>": 9747, "éni</w>": 9748, " cho": 9749, " accompl": 9750, "AR</w>": 9751, " transl": 9752, " idős": 9753, " periods</w>": 9754, "ált,</w>": 9755, "elf</w>": 9756, "oor</w>": 9757, " Psych": 9758, " turb": 9759, " kérelm": 9760, " Tem": 9761, "eness</w>": 9762, " készülék</w>": 9763, " Northern</w>": 9764, "azon": 9765, " ik": 9766, "eon</w>": 9767, "vonal": 9768, " Mill": 9769, " lezár": 9770, "ancing</w>": 9771, " alt": 9772, "nal</w>": 9773, " Viszont</w>": 9774, "je.</w>": 9775, " exhib": 9776, " east</w>": 9777, "ember,</w>": 9778, " ago</w>": 9779, " száraz</w>": 9780, " troops</w>": 9781, "ására,</w>": 9782, " gall": 9783, " számtalan</w>": 9784, " töl": 9785, " tartalom</w>": 9786, " indicates</w>": 9787, " playing</w>": 9788, " detect</w>": 9789, " áldozat": 9790, " philosoph": 9791, " every": 9792, "OS": 9793, " IN": 9794, " feladat</w>": 9795, " módja</w>": 9796, "tán</w>": 9797, " coordin": 9798, " swinger</w>": 9799, " Despite</w>": 9800, " ingy": 9801, " protected</w>": 9802, " Mr.</w>": 9803, " Press,</w>": 9804, " cégek</w>": 9805, " többnyire</w>": 9806, " piros</w>": 9807, "oting</w>": 9808, " releas": 9809, " worth</w>": 9810, " bal</w>": 9811, " nan": 9812, " eredmények</w>": 9813, "iskol": 9814, " trend": 9815, "y?</w>": 9816, " possibly</w>": 9817, " completed</w>": 9818, " vizet</w>": 9819, " F.</w>": 9820, "int.</w>": 9821, "ellát": 9822, " 14.</w>": 9823, " TV</w>": 9824, " meglehetősen</w>": 9825, " increas": 9826, " journal</w>": 9827, " valós</w>": 9828, " alapú</w>": 9829, "try</w>": 9830, " órán</w>": 9831, " állapotban</w>": 9832, " tudod</w>": 9833, " ideal</w>": 9834, "ency.</w>": 9835, " pinák</w>": 9836, "sm": 9837, "SA</w>": 9838, " information,</w>": 9839, " chemicals</w>": 9840, " links</w>": 9841, "AN</w>": 9842, "ezni.</w>": 9843, " world’s</w>": 9844, "ased</w>": 9845, "asztó</w>": 9846, " nutrients</w>": 9847, "álaszt": 9848, " Dél": 9849, " öltöz": 9850, " voltak.</w>": 9851, " domestic</w>": 9852, "ed?</w>": 9853, " frequ": 9854, " román</w>": 9855, "uv": 9856, " tartós</w>": 9857, "imm": 9858, "akban</w>": 9859, " speak</w>": 9860, " assist": 9861, " Ki</w>": 9862, " radio</w>": 9863, " behavi": 9864, " sark": 9865, "ín</w>": 9866, "tt,</w>": 9867, " represented</w>": 9868, " javítás": 9869, " history,</w>": 9870, " refer": 9871, " esett</w>": 9872, "me</w>": 9873, " szerint,</w>": 9874, " naturally</w>": 9875, " extended</w>": 9876, " kont": 9877, " extensive</w>": 9878, " lehetőségek</w>": 9879, " terror": 9880, " certainly</w>": 9881, " együttes</w>": 9882, "őség</w>": 9883, " motion</w>": 9884, "OM": 9885, " fine</w>": 9886, " emo": 9887, " Environmental</w>": 9888, " king</w>": 9889, " kider": 9890, " Hír": 9891, "esztő</w>": 9892, "vég": 9893, "úg": 9894, " solve</w>": 9895, " change.</w>": 9896, " tisztelet": 9897, "ásról</w>": 9898, " threat": 9899, " constitu": 9900, "etett</w>": 9901, " stone</w>": 9902, "letek</w>": 9903, " joint</w>": 9904, " transfer</w>": 9905, "olni,</w>": 9906, " technical</w>": 9907, " kin": 9908, " consum": 9909, " lengyel</w>": 9910, "0-as</w>": 9911, " block</w>": 9912, " üzenet": 9913, " főként</w>": 9914, " corn": 9915, " jogszabály": 9916, " suitable</w>": 9917, " Peter</w>": 9918, " csont": 9919, " elny": 9920, " foc": 9921, " mellék": 9922, " sz.</w>": 9923, " nyelven</w>": 9924, "ettek.</w>": 9925, " legmagasabb</w>": 9926, " miként</w>": 9927, " command</w>": 9928, " adopted</w>": 9929, "övet": 9930, " tartott": 9931, "Mi</w>": 9932, " document": 9933, " blog</w>": 9934, " velük</w>": 9935, " rendszerek</w>": 9936, " PC": 9937, " egymást</w>": 9938, " ún.</w>": 9939, " doc": 9940, "atra</w>": 9941, "örös</w>": 9942, "arity</w>": 9943, " Natural</w>": 9944, " helyiség": 9945, " options</w>": 9946, " dur": 9947, " kib": 9948, " greenhouse</w>": 9949, " belong": 9950, " szent</w>": 9951, " döntött": 9952, " respond</w>": 9953, " THE</w>": 9954, " var": 9955, " vagyunk,</w>": 9956, "ading</w>": 9957, " Világ": 9958, " sensitive</w>": 9959, " kedvezmény": 9960, "id.</w>": 9961, " gi": 9962, " tudni,</w>": 9963, "oba</w>": 9964, " vele.</w>": 9965, " róla</w>": 9966, " 2,": 9967, " chem": 9968, " emphas": 9969, " buildings</w>": 9970, " prol": 9971, " Tóth</w>": 9972, " 21.</w>": 9973, " fontosság": 9974, " Mari": 9975, " közepén</w>": 9976, " közreműköd": 9977, "áció,</w>": 9978, " érvényesít": 9979, "ise.</w>": 9980, "esebben</w>": 9981, "ament</w>": 9982, " napján</w>": 9983, "áll</w>": 9984, " lep": 9985, " templom</w>": 9986, " coastal</w>": 9987, " orgazmus</w>": 9988, " conserv": 9989, " összeh": 9990, " Krisztus</w>": 9991, " amellyel</w>": 9992, "ivat": 9993, "esth": 9994, " relationships</w>": 9995, " életet</w>": 9996, " gender</w>": 9997, " szerző</w>": 9998, " várakoz": 9999, " marketing</w>": 10000, " randi</w>": 10001, " Lin": 10002, " dolgok</w>": 10003, "'ve</w>": 10004, " Appl": 10005, " crops</w>": 10006, " electronic</w>": 10007, "ód</w>": 10008, " conflict</w>": 10009, " Tit": 10010, " diagnosis</w>": 10011, " csíp": 10012, " distrib": 10013, " fogva</w>": 10014, " Only</w>": 10015, " immár</w>": 10016, " mély</w>": 10017, " imper": 10018, " lose</w>": 10019, " fa</w>": 10020, " pornó": 10021, " literature</w>": 10022, " alone</w>": 10023, " disorders</w>": 10024, " attól,</w>": 10025, " creates</w>": 10026, " 16.</w>": 10027, "ants.</w>": 10028, " Kér": 10029, " gép</w>": 10030, " támogatást</w>": 10031, "ames</w>": 10032, " tour": 10033, " belőle</w>": 10034, " portr": 10035, " adatkez": 10036, " Federal</w>": 10037, "ibr": 10038, "szabad": 10039, " érett": 10040, "4)</w>": 10041, " Read</w>": 10042, " karbantart": 10043, " Have</w>": 10044, " K.</w>": 10045, " It's</w>": 10046, "házi</w>": 10047, " település": 10048, " participants</w>": 10049, "ates.</w>": 10050, " threat</w>": 10051, " érintő</w>": 10052, " ritkán</w>": 10053, " valuable</w>": 10054, " legyen,</w>": 10055, " crop</w>": 10056, " cserél": 10057, "tük</w>": 10058, "kön</w>": 10059, " Lak": 10060, ".5</w>": 10061, " hird": 10062, "ten</w>": 10063, " pleas": 10064, " párt</w>": 10065, "EN</w>": 10066, " igen,</w>": 10067, "ix</w>": 10068, " should": 10069, " megközelít": 10070, " awareness</w>": 10071, " kötelez": 10072, " Hivatal</w>": 10073, "allgat": 10074, "ip,</w>": 10075, " biom": 10076, "Ex": 10077, " explains</w>": 10078, " waves</w>": 10079, " solu": 10080, "után</w>": 10081, " yellow</w>": 10082, " data.</w>": 10083, "asting</w>": 10084, " lenni,</w>": 10085, " szerkezet": 10086, " Char": 10087, " kivon": 10088, " fru": 10089, " express": 10090, "osan,</w>": 10091, "odes</w>": 10092, " engineering</w>": 10093, " olv": 10094, " track</w>": 10095, "hatsz</w>": 10096, "rev": 10097, "iness</w>": 10098, " szó.</w>": 10099, " kormányz": 10100, "fa</w>": 10101, " Turk": 10102, "apped</w>": 10103, "író</w>": 10104, " mesél": 10105, " wom": 10106, "essen</w>": 10107, " egyet</w>": 10108, " collabor": 10109, " település</w>": 10110, " szerepel</w>": 10111, " asz": 10112, "ról.</w>": 10113, "ust,</w>": 10114, " sziv": 10115, " magatart": 10116, " kilát": 10117, " Mars</w>": 10118, "ünket,</w>": 10119, " megbeteged": 10120, "ret</w>": 10121, "day</w>": 10122, " étter": 10123, " students.</w>": 10124, " jelz": 10125, " történik.</w>": 10126, " káros</w>": 10127, " path</w>": 10128, "ker</w>": 10129, " Exper": 10130, " Exc": 10131, " message</w>": 10132, " Control</w>": 10133, " kérdések</w>": 10134, "ente</w>": 10135, "lan</w>": 10136, " katolikus</w>": 10137, " visszaf": 10138, " enjoy</w>": 10139, " prosztatagyulladás</w>": 10140, " pay": 10141, " aer": 10142, " Information</w>": 10143, " egységes</w>": 10144, "iding</w>": 10145, " father</w>": 10146, "üli</w>": 10147, " monitor</w>": 10148, "orts</w>": 10149, "str": 10150, " Viktor</w>": 10151, " sho": 10152, " közlemény": 10153, " század": 10154, " on.</w>": 10155, " celebr": 10156, " met</w>": 10157, " risks</w>": 10158, " bárki</w>": 10159, "ikusan</w>": 10160, "inning</w>": 10161, " kiemelkedő</w>": 10162, " depos": 10163, " beszám": 10164, " szállás": 10165, " Sok": 10166, " előadás</w>": 10167, " össze,</w>": 10168, " Sun": 10169, " nerve</w>": 10170, " okozott</w>": 10171, " társaság</w>": 10172, " fek": 10173, " raise</w>": 10174, " szept": 10175, "eim</w>": 10176, " cloth": 10177, "-K": 10178, "itud": 10179, " hair</w>": 10180, " Inform": 10181, " megvalósítás": 10182, " hatály": 10183, "oki</w>": 10184, "jének</w>": 10185, " fordít": 10186, " Ob": 10187, "ver</w>": 10188, " gramm": 10189, " mult": 10190, " Hát</w>": 10191, " akiket</w>": 10192, " studying</w>": 10193, " von</w>": 10194, " bejegy": 10195, " operations</w>": 10196, "terület": 10197, " Tor": 10198, "25</w>": 10199, " generated</w>": 10200, " kill</w>": 10201, " other.</w>": 10202, "%-os</w>": 10203, " Nature</w>": 10204, " kitölt": 10205, " felhasználói</w>": 10206, " purpos": 10207, " diéta</w>": 10208, " tekintetében</w>": 10209, "-s</w>": 10210, " resist": 10211, "sel</w>": 10212, " akarja</w>": 10213, " evid": 10214, " hospit": 10215, "fejlesztési</w>": 10216, " gyulladás</w>": 10217, " contex": 10218, " polgármester</w>": 10219, "AM": 10220, " feletti</w>": 10221, " Ukr": 10222, " órakor</w>": 10223, " 5-": 10224, " measur": 10225, "itt</w>": 10226, " Global</w>": 10227, " kellemetlen</w>": 10228, " failure</w>": 10229, " láz": 10230, " egyén": 10231, "6-os</w>": 10232, " M</w>": 10233, " Társ": 10234, " solutions</w>": 10235, "ozni</w>": 10236, "icient</w>": 10237, "mir": 10238, " felé.</w>": 10239, " ban": 10240, " cryst": 10241, " policies</w>": 10242, " terméket</w>": 10243, " special": 10244, "airól</w>": 10245, "organ": 10246, " sufficient</w>": 10247, "beteg": 10248, " Dav": 10249, "ionális</w>": 10250, " elf": 10251, "ús": 10252, " többsége</w>": 10253, " chur": 10254, " Első</w>": 10255, "ékek</w>": 10256, " Microsoft</w>": 10257, "alizál": 10258, " Att": 10259, " parazita</w>": 10260, "cription</w>": 10261, "anding</w>": 10262, "90</w>": 10263, "Ar": 10264, " body,</w>": 10265, " globális</w>": 10266, "ty,</w>": 10267, " baszas</w>": 10268, " szőrös</w>": 10269, " requirements</w>": 10270, " tanús": 10271, " kutatás</w>": 10272, " legjobban</w>": 10273, " Spr": 10274, "AI</w>": 10275, " polic": 10276, " greatly</w>": 10277, " kielég": 10278, " Mária</w>": 10279, " szell": 10280, " embernek</w>": 10281, "szolg": 10282, " Govern": 10283, "har": 10284, "árgy": 10285, " szerint.</w>": 10286, "tuk,</w>": 10287, "aim</w>": 10288, " labor</w>": 10289, "ails</w>": 10290, " esemény</w>": 10291, " bemutatás": 10292, "ries</w>": 10293, " fajta</w>": 10294, " sport</w>": 10295, " Lord</w>": 10296, "ren</w>": 10297, "olit": 10298, " fear</w>": 10299, "inc</w>": 10300, "tető</w>": 10301, " mamm": 10302, " legalábbis</w>": 10303, " amelyen</w>": 10304, " rendelkezik,</w>": 10305, " diverse</w>": 10306, " tab": 10307, " substance</w>": 10308, "orno</w>": 10309, " püsp": 10310, " systems.</w>": 10311, "amar": 10312, " feled": 10313, " ár</w>": 10314, "oul": 10315, " install": 10316, " o</w>": 10317, "-n": 10318, "használ": 10319, "wards</w>": 10320, " gyönyör": 10321, " cikl": 10322, " dolgozó</w>": 10323, " Szab": 10324, " issu": 10325, " pénisz</w>": 10326, " kétszer</w>": 10327, "ria</w>": 10328, " kl": 10329, "hang": 10330, " friends</w>": 10331, " zárt</w>": 10332, "ous.</w>": 10333, " CD": 10334, "atát</w>": 10335, "könyv</w>": 10336, "ocr": 10337, " formájában</w>": 10338, " kijel": 10339, " reflect</w>": 10340, " össze.</w>": 10341, " udvar": 10342, "inking</w>": 10343, " használható</w>": 10344, "ept</w>": 10345, " nyilvánval": 10346, " listed</w>": 10347, " katon": 10348, " encour": 10349, "ments,</w>": 10350, " 2009</w>": 10351, " concern</w>": 10352, " sugg": 10353, "ődött</w>": 10354, " decreas": 10355, " Bék": 10356, "5)</w>": 10357, "úl</w>": 10358, " a.</w>": 10359, "ekben.</w>": 10360, " Also</w>": 10361, " subm": 10362, " Szövet": 10363, "acter": 10364, " Aug": 10365, " familiar</w>": 10366, " szokásos</w>": 10367, " kaland": 10368, "ip.</w>": 10369, "játok</w>": 10370, " seed</w>": 10371, "ases</w>": 10372, "alan</w>": 10373, " replaced</w>": 10374, " learn": 10375, " tudsz</w>": 10376, " Gyógy": 10377, " 2017</w>": 10378, " déli</w>": 10379, " mondan": 10380, " pati": 10381, " automatikusan</w>": 10382, "tok</w>": 10383, " compr": 10384, " kötelezett": 10385, " Ám</w>": 10386, " inner</w>": 10387, " tele</w>": 10388, " életét</w>": 10389, " emiatt</w>": 10390, " megkö": 10391, " fegy": 10392, " jelölt": 10393, " rag": 10394, " n</w>": 10395, " starts</w>": 10396, " sides</w>": 10397, " konflikt": 10398, " papír": 10399, "eződ": 10400, "Wh": 10401, " hátsó</w>": 10402, " Majd</w>": 10403, " tudomány": 10404, " legsz": 10405, " döntés</w>": 10406, "tör": 10407, " Önkormányzata</w>": 10408, "ictions</w>": 10409, "esh": 10410, " Est": 10411, " Off": 10412, " felszín": 10413, " interf": 10414, " kiegészítő</w>": 10415, " gát": 10416, " szexpartner</w>": 10417, " clus": 10418, " Pe": 10419, "-os</w>": 10420, " provid": 10421, " előz": 10422, "mű": 10423, " engem</w>": 10424, " board</w>": 10425, " reakció": 10426, "uct": 10427, " negyed": 10428, " fig": 10429, "ura</w>": 10430, " diversity</w>": 10431, " dok": 10432, " Project</w>": 10433, " eredmény</w>": 10434, " six": 10435, " dro": 10436, " szóval</w>": 10437, " voltage</w>": 10438, " strategy</w>": 10439, " hasz": 10440, " introduction</w>": 10441, " unable</w>": 10442, " thor": 10443, " sets</w>": 10444, " later,</w>": 10445, " tavalyi</w>": 10446, " ultr": 10447, " nyúj": 10448, " Imre</w>": 10449, " indul</w>": 10450, " statement</w>": 10451, "izt": 10452, "ozzák</w>": 10453, " édesany": 10454, " adomány": 10455, " tűnik</w>": 10456, " gyártó</w>": 10457, " bont": 10458, " assign": 10459, " dog</w>": 10460, " otherwise</w>": 10461, " resulted</w>": 10462, " sőt,</w>": 10463, "ezést</w>": 10464, "enség</w>": 10465, "pály": 10466, "talanul</w>": 10467, " kicsi</w>": 10468, " moral</w>": 10469, "olása</w>": 10470, " felhasználók</w>": 10471, " Serv": 10472, " magaz": 10473, "ÁS</w>": 10474, " Art": 10475, " park</w>": 10476, " entirely</w>": 10477, " crow": 10478, " full": 10479, "ault</w>": 10480, " Sea</w>": 10481, " L</w>": 10482, "ains,</w>": 10483, " NO": 10484, " gir": 10485, " Anna</w>": 10486, "ival": 10487, " mess": 10488, " Béla</w>": 10489, " terv</w>": 10490, " alkalmazása</w>": 10491, "bar": 10492, " illat": 10493, "tika</w>": 10494, "izz": 10495, " összehasonl": 10496, " Martin</w>": 10497, " 2008</w>": 10498, "jén</w>": 10499, " személyesen</w>": 10500, "eség</w>": 10501, " Service</w>": 10502, "ságát</w>": 10503, " keleti</w>": 10504, " megtekint": 10505, "ones,</w>": 10506, " mélt": 10507, " masszazs</w>": 10508, " independ": 10509, "ines.</w>": 10510, " review": 10511, " tartani</w>": 10512, " crit": 10513, "ior</w>": 10514, "west</w>": 10515, " brut": 10516, "icit</w>": 10517, " edzés": 10518, " selected</w>": 10519, " másrészt</w>": 10520, "light</w>": 10521, " testvér": 10522, " languages</w>": 10523, " használni</w>": 10524, " fájdalom": 10525, " szervezett</w>": 10526, "olved</w>": 10527, " email</w>": 10528, " miniszter</w>": 10529, " képerny": 10530, " rol": 10531, "yth": 10532, " en</w>": 10533, "éve,</w>": 10534, " Norm": 10535, "icks</w>": 10536, "While</w>": 10537, "ather,</w>": 10538, " 2020": 10539, " coast</w>": 10540, " foglalkozó</w>": 10541, " sequence</w>": 10542, " autó": 10543, "ulations</w>": 10544, " hatalm": 10545, "olar</w>": 10546, "oglal": 10547, " II": 10548, " kedvenc": 10549, " signals</w>": 10550, " warming</w>": 10551, "rajzi</w>": 10552, " erősít": 10553, " Australian</w>": 10554, " tax</w>": 10555, " box": 10556, " véget</w>": 10557, " uralkod": 10558, " Kom": 10559, " kurv": 10560, " muscles</w>": 10561, " rendőrség</w>": 10562, "ire,</w>": 10563, " Úr</w>": 10564, " ste": 10565, " Kap": 10566, " tiss": 10567, "ényi</w>": 10568, " Y</w>": 10569, " tál": 10570, " zaj": 10571, " klím": 10572, " Rights</w>": 10573, " transport</w>": 10574, " Külön": 10575, " acts</w>": 10576, "ules</w>": 10577, "ján,</w>": 10578, "anna</w>": 10579, " ger": 10580, " kur": 10581, " kiállítás</w>": 10582, " prosztata</w>": 10583, " place.</w>": 10584, " La</w>": 10585, " survey</w>": 10586, "asi</w>": 10587, " legfőbb</w>": 10588, " ét": 10589, "esebb": 10590, " legend": 10591, " centi": 10592, "ergy</w>": 10593, " sugár": 10594, "eline</w>": 10595, " majd.</w>": 10596, "oci": 10597, "éter</w>": 10598, "orms</w>": 10599, " kötelezettség": 10600, "isation</w>": 10601, " bölcs": 10602, " Csal": 10603, " gyűl": 10604, "uma</w>": 10605, "súly": 10606, " wir": 10607, " Phys": 10608, "ÁN": 10609, " karácsonyi</w>": 10610, "fic": 10611, " one.</w>": 10612, " reklám": 10613, " accoun": 10614, " nagyszerű</w>": 10615, " káros": 10616, " kerest": 10617, " hyp": 10618, " spir": 10619, " iv": 10620, " száraz": 10621, " citizens</w>": 10622, " difficulty</w>": 10623, " gyógynöv": 10624, " Professor</w>": 10625, "ülön": 10626, " (e.g.,</w>": 10627, " ked": 10628, "Cl": 10629, "tatni</w>": 10630, "0)</w>": 10631, " document</w>": 10632, " antioxid": 10633, "-M": 10634, " megtiszt": 10635, " Intézet</w>": 10636, " hideg": 10637, " No": 10638, "iből</w>": 10639, " drág": 10640, " drám": 10641, " orosz": 10642, " styl": 10643, " expressed</w>": 10644, " feld": 10645, " Irod": 10646, " dagan": 10647, " occas": 10648, " involve</w>": 10649, " breast</w>": 10650, " firstname.lastname@example.org</w>": 10651, " Ul": 10652, " Catholic</w>": 10653, " szerelem</w>": 10654, " High": 10655, " hozzászól": 10656, " expect</w>": 10657, "jt": 10658, "ens.</w>": 10659, " existence</w>": 10660, "adr": 10661, " email@example.com</w>": 10662, "jainak</w>": 10663, " tudós": 10664, " szemben.</w>": 10665, " Érdek": 10666, " térkép": 10667, " roots</w>": 10668, " történik,</w>": 10669, " tea</w>": 10670, " CO2</w>": 10671, " látott</w>": 10672, "esek,</w>": 10673, " shif": 10674, "ayer</w>": 10675, " injur": 10676, " didn’t</w>": 10677, " organizations</w>": 10678, " multipl": 10679, "napi</w>": 10680, " cancer.</w>": 10681, " Video</w>": 10682, " procedure</w>": 10683, " ritk": 10684, " discussed</w>": 10685, "ányz": 10686, " photograph": 10687, " articles</w>": 10688, " sikerül</w>": 10689, "ékok</w>": 10690, " használja</w>": 10691, " önmagában</w>": 10692, " hung": 10693, " Eastern</w>": 10694, " sért": 10695, " composed</w>": 10696, "forr": 10697, " ugyanúgy</w>": 10698, "isions</w>": 10699, " represent": 10700, " környezet</w>": 10701, " der</w>": 10702, " nation</w>": 10703, "len,</w>": 10704, " Miskol": 10705, " lép</w>": 10706, " accepted</w>": 10707, "-up</w>": 10708, " információt</w>": 10709, "0).</w>": 10710, "gyógy": 10711, " közönség</w>": 10712, " Balázs</w>": 10713, " rou": 10714, " soldiers</w>": 10715, " elutas": 10716, " whereas</w>": 10717, " latest</w>": 10718, " Joh": 10719, " Hum": 10720, " Állam": 10721, " szeksz</w>": 10722, " height</w>": 10723, " Ingyen</w>": 10724, " ellenére,</w>": 10725, "anks</w>": 10726, " mouth": 10727, " ismeretlen</w>": 10728, " alkalmazás</w>": 10729, " liver</w>": 10730, " telepít": 10731, "uel</w>": 10732, " attrib": 10733, "And</w>": 10734, " Orig": 10735, "ectors</w>": 10736, "szab": 10737, " ellenáll": 10738, "gatás": 10739, " closer</w>": 10740, " folyamán</w>": 10741, " plays</w>": 10742, " kattint": 10743, " Not": 10744, " operation</w>": 10745, "onal": 10746, "ezek</w>": 10747, " képzés</w>": 10748, " tet": 10749, " capac": 10750, " főváros": 10751, " fagy": 10752, " 20th</w>": 10753, " Marg": 10754, " lépett</w>": 10755, " esc": 10756, "ároz": 10757, " Jos": 10758, "ózis": 10759, " goals</w>": 10760, " Studies</w>": 10761, " experiment</w>": 10762, " diff": 10763, " ra": 10764, " explained</w>": 10765, " County</w>": 10766, " Igen,</w>": 10767, "atiz": 10768, " római</w>": 10769, " mérg": 10770, " biztosítja</w>": 10771, " attached</w>": 10772, "épp</w>": 10773, " exampl": 10774, "ászt": 10775, " hour": 10776, " kak": 10777, " Phot": 10778, " tek": 10779, "éria</w>": 10780, " possibility</w>": 10781, " hulladék": 10782, " szolg": 10783, " Több": 10784, "város": 10785, " hátrány": 10786, " összefoglal": 10787, " report": 10788, " mix": 10789, "igh</w>": 10790, " permanent</w>": 10791, "van</w>": 10792, "árg": 10793, " helpful</w>": 10794, " separ": 10795, " boldog</w>": 10796, " Község</w>": 10797, " 2008.</w>": 10798, "di</w>": 10799, " opposite</w>": 10800, "elni.</w>": 10801, " 2020</w>": 10802, "onia</w>": 10803, "osi</w>": 10804, " consequences</w>": 10805, " diákok</w>": 10806, " napja</w>": 10807, "előtt</w>": 10808, " beautiful</w>": 10809, "DA</w>": 10810, " Mexic": 10811, " exchange</w>": 10812, " goods</w>": 10813, " discipl": 10814, " succ": 10815, " home.</w>": 10816, " Zsolt</w>": 10817, " lév": 10818, " wave</w>": 10819, " öl": 10820, "ánk,</w>": 10821, "erted</w>": 10822, " Fér": 10823, " országok</w>": 10824, " Ath": 10825, " underlying</w>": 10826, "ias</w>": 10827, " azon": 10828, " pénz</w>": 10829, " Szövetség</w>": 10830, "ni!</w>": 10831, "olds</w>": 10832, " revealed</w>": 10833, " filled</w>": 10834, "on's</w>": 10835, "AL</w>": 10836, " efficiency</w>": 10837, " mág": 10838, "und</w>": 10839, " facts</w>": 10840, " UK</w>": 10841, " magad</w>": 10842, " tekintettel</w>": 10843, " alakul": 10844, " folyó</w>": 10845, " titkos</w>": 10846, " properly</w>": 10847, " Engl": 10848, " 3,</w>": 10849, " kerültek</w>": 10850, " intest": 10851, " e-mail": 10852, "azás</w>": 10853, "ső": 10854, " lámp": 10855, " büszk": 10856, " paras": 10857, " igény</w>": 10858, "agy</w>": 10859, " forests</w>": 10860, " kibaszott</w>": 10861, " marked</w>": 10862, " harmful</w>": 10863, " magukat</w>": 10864, " Pár": 10865, " classes</w>": 10866, "s'</w>": 10867, " Inv": 10868, " engage</w>": 10869, " (vagy</w>": 10870, "ész,</w>": 10871, "ártya</w>": 10872, " treatments</w>": 10873, "jegyz": 10874, "asses</w>": 10875, "osabban</w>": 10876, "össz": 10877, " mindenféle</w>": 10878, " Ezeket</w>": 10879, " polgári</w>": 10880, " dkg</w>": 10881, "nek": 10882, " contained</w>": 10883, " felül": 10884, " inches</w>": 10885, " knew</w>": 10886, " visszavon": 10887, "olve</w>": 10888, " érte</w>": 10889, " level.</w>": 10890, " Például</w>": 10891, " Sel": 10892, " távú</w>": 10893, " fiú</w>": 10894, " rendezvény</w>": 10895, "Some</w>": 10896, "eop": 10897, " satisf": 10898, " process,</w>": 10899, "ast,</w>": 10900, " problem.</w>": 10901, " beg": 10902, " pon": 10903, " Canad": 10904, " inhib": 10905, " recep": 10906, " érd": 10907, " csász": 10908, "nem": 10909, " mobile</w>": 10910, " gyom": 10911, " days.</w>": 10912, " elõ": 10913, " Ilyenkor</w>": 10914, " letölt": 10915, "ins,</w>": 10916, "ency,</w>": 10917, " Bu": 10918, "ságban</w>": 10919, "BC</w>": 10920, "ror</w>": 10921, " organisms</w>": 10922, " Technology</w>": 10923, " éj": 10924, " 2020.</w>": 10925, " megjelenő</w>": 10926, " artificial</w>": 10927, " underg": 10928, "On": 10929, " Web</w>": 10930, " magában</w>": 10931, " techniqu": 10932, " characters</w>": 10933, " unless</w>": 10934, "iled</w>": 10935, " választás</w>": 10936, "cho": 10937, "zési</w>": 10938, " Japan</w>": 10939, "közl": 10940, " temp": 10941, " Mus": 10942, " elfoglal": 10943, " obtain</w>": 10944, "eiről</w>": 10945, " else</w>": 10946, " includ": 10947, "at!</w>": 10948, " adatai</w>": 10949, "ós,</w>": 10950, "ológus</w>": 10951, "ből.</w>": 10952, "lan": 10953, "aving</w>": 10954, " decades</w>": 10955, "eff": 10956, " gom": 10957, "incs": 10958, " DN": 10959, " recov": 10960, " advoc": 10961, " durva</w>": 10962, " webs": 10963, " elb": 10964, " szokás": 10965, "séget,</w>": 10966, " körüli</w>": 10967, "ikus": 10968, " beleértve</w>": 10969, " tooth</w>": 10970, " Pos": 10971, " problem": 10972, " authority</w>": 10973, " helyszínen</w>": 10974, " sold</w>": 10975, " volum": 10976, " Debrec": 10977, "ibil": 10978, " candid": 10979, " termin": 10980, "unction</w>": 10981, " nyáron</w>": 10982, "tron": 10983, " principle</w>": 10984, " emészt": 10985, " concerns</w>": 10986, " medicine</w>": 10987, "enl": 10988, " cells,</w>": 10989, " (d": 10990, " intézmények</w>": 10991, " Pre": 10992, " szállítás": 10993, "hetett</w>": 10994, " Eng": 10995, " különleg": 10996, "ere.</w>": 10997, " regional</w>": 10998, " soft</w>": 10999, " partic": 11000, " Associ": 11001, "most</w>": 11002, " Lesz": 11003, " buy</w>": 11004, "irány": 11005, " thousand</w>": 11006, " tekintet": 11007, "öket</w>": 11008, " peopl": 11009, " Apple</w>": 11010, "kori</w>": 11011, " válassz": 11012, " vagyok.</w>": 11013, " telefonszám": 11014, " nyert</w>": 11015, "ikus,</w>": 11016, " XX": 11017, "óval,</w>": 11018, " izom": 11019, "arch": 11020, " sup": 11021, "elle</w>": 11022, " Els": 11023, "entation</w>": 11024, " kidolgoz": 11025, " kínál</w>": 11026, " részes": 11027, " kettő</w>": 11028, " terr": 11029, " langu": 11030, " órás</w>": 11031, "ször</w>": 11032, " diamond</w>": 11033, " iz": 11034, " kiránd": 11035, " helyre</w>": 11036, " double</w>": 11037, "b)</w>": 11038, " felmer": 11039, " Office</w>": 11040, "áj</w>": 11041, "iles</w>": 11042, " hű": 11043, " Air": 11044, " alapanyag": 11045, " exclus": 11046, "ikor</w>": 11047, " food,</w>": 11048, " ék": 11049, "hol</w>": 11050, " harmad": 11051, " enable</w>": 11052, " egyfajta</w>": 11053, " műanyag</w>": 11054, " erup": 11055, " hős": 11056, "lem": 11057, "av</w>": 11058, " megd": 11059, "ish.</w>": 11060, " disrup": 11061, " sust": 11062, " however</w>": 11063, " követő": 11064, "úd": 11065, "idő</w>": 11066, " 17.</w>": 11067, " Budapesti</w>": 11068, "kozó</w>": 11069, " magának</w>": 11070, " mondhat": 11071, "ilt</w>": 11072, " foot</w>": 11073, "ések,</w>": 11074, " origin</w>": 11075, "emical</w>": 11076, " elkötel": 11077, " könnyedén</w>": 11078, " Medic": 11079, " Vi": 11080, " díjat</w>": 11081, " brown</w>": 11082, "amok</w>": 11083, " mm": 11084, " improving</w>": 11085, " komplex</w>": 11086, " maximális</w>": 11087, " ago,</w>": 11088, " treatment.</w>": 11089, "atika</w>": 11090, " Király": 11091, "űl": 11092, " természeti</w>": 11093, " egy-két</w>": 11094, " Group</w>": 11095, " információkat</w>": 11096, " salt</w>": 11097, "őkép": 11098, "ációja</w>": 11099, " lux": 11100, " természet</w>": 11101, " hullám": 11102, " counter": 11103, " szexvideók</w>": 11104, "óni": 11105, " során,</w>": 11106, " background</w>": 11107, "víz": 11108, " agg": 11109, "éssel,</w>": 11110, " Ebből</w>": 11111, " presid": 11112, " conventional</w>": 11113, " szól</w>": 11114, " pénteken</w>": 11115, " book": 11116, " épül": 11117, " ler": 11118, " Europ": 11119, " tut": 11120, " prepare</w>": 11121, " kék</w>": 11122, "átok</w>": 11123, " számol": 11124, "At</w>": 11125, " tartják</w>": 11126, "ack.</w>": 11127, " testvér</w>": 11128, " up.</w>": 11129, " own": 11130, " Adat": 11131, " vev": 11132, " successfully</w>": 11133, " Island</w>": 11134, "aki</w>": 11135, "nia,</w>": 11136, " nap,</w>": 11137, " ismétel": 11138, "SI</w>": 11139, " hajlam": 11140, "9)</w>": 11141, " időre</w>": 11142, " Frank": 11143, " latter</w>": 11144, "ED": 11145, " hálóz": 11146, "ou</w>": 11147, "ókkal</w>": 11148, "ajd": 11149, " túr": 11150, " orv": 11151, " fewer</w>": 11152, " nevét</w>": 11153, "iák</w>": 11154, " felül</w>": 11155, " látás</w>": 11156, " Climate</w>": 11157, " tiz": 11158, "eken,</w>": 11159, "RI": 11160, " workshe": 11161, " Prov": 11162, " sam": 11163, "erly</w>": 11164, " kilom": 11165, " Republ": 11166, " host": 11167, " (T": 11168, " isol": 11169, "énél</w>": 11170, "amp</w>": 11171, " ban</w>": 11172, " legh": 11173, " survive</w>": 11174, "\".</w>": 11175, "agyar</w>": 11176, "nev": 11177, "sor</w>": 11178, "15</w>": 11179, " vagyon": 11180, " Mik": 11181, "hetetlen": 11182, " suffer</w>": 11183, "uf": 11184, "ásra,</w>": 11185, " anyuk": 11186, " approaches</w>": 11187, " epid": 11188, "úly</w>": 11189, " season</w>": 11190, " rh": 11191, " 2018</w>": 11192, "okkal.</w>": 11193, " future.</w>": 11194, " örök</w>": 11195, " megél": 11196, " novel</w>": 11197, " érvényes</w>": 11198, " internet": 11199, " pir": 11200, "ója.</w>": 11201, "ected.</w>": 11202, " idősebb</w>": 11203, " vin": 11204, " colleagues</w>": 11205, " leggyakoribb</w>": 11206, "eo</w>": 11207, "ump</w>": 11208, "ták.</w>": 11209, " public": 11210, " tav": 11211, "uzs": 11212, " medit": 11213, "ítások</w>": 11214, " seed": 11215, " szenny": 11216, " kialakult</w>": 11217, " kultúra</w>": 11218, " stages</w>": 11219, " ő": 11220, " managed</w>": 11221, " szolgáltató</w>": 11222, " joined</w>": 11223, " America.</w>": 11224, "icking</w>": 11225, " modell</w>": 11226, " kitart": 11227, " létre,</w>": 11228, " strik": 11229, " ;</w>": 11230, " egyensúly": 11231, "ással,</w>": 11232, " Red": 11233, " Doc": 11234, "ekbe</w>": 11235, " használják</w>": 11236, "lenül</w>": 11237, "a;</w>": 11238, " számomra</w>": 11239, " Christ": 11240, " szükséges.</w>": 11241, "eki</w>": 11242, " Scho": 11243, " out,</w>": 11244, " támadás": 11245, " tükröz": 11246, "áthat": 11247, " organized</w>": 11248, "estion</w>": 11249, " kezdte</w>": 11250, "idd": 11251, " Zsuzs": 11252, " lez": 11253, " megelőző</w>": 11254, " jelenti</w>": 11255, " Z</w>": 11256, "film": 11257, " végére</w>": 11258, "ájú</w>": 11259, " Hab": 11260, " violence</w>": 11261, "anny": 11262, "eful</w>": 11263, "ivers": 11264, " Book</w>": 11265, " achieved</w>": 11266, "előd": 11267,
[...]
